{"<|pad|>": 0, "<|unk|>": 1, ":": 2, "1": 3, "0": 4, "2": 5, ".": 6, "9": 7, "5": 8, "3": 9, "\"": 10, "4": 11, "6": 12, "7": 13, "-": 14, "8": 15, ">": 16, "de": 17, ",": 18, "\":": 19, "**": 20, "e": 21, "en": 22, "a": 23, "<": 24, "</": 25, "\",": 26, "d": 27, ".com": 28, "i": 29, "n": 30, "{": 31, "la": 32, "f": 33, "in": 34, "/": 35, "b": 36, "di": 37, "c": 38, "ip": 39, "h": 40, "'": 41, "the": 42, "t": 43, "and": 44, "to": 45, "},": 46, "l": 47, "id": 48, "z": 49, "o": 50, "y": 51, "li": 52, "\\n": 53, "of": 54, "le": 55, "v": 56, "email": 57, "u": 58, "j": 59, "@": 60, "el": 61, "s": 62, "p": 63, "und": 64, "social": 65, "[": 66, "k": 67, "w": 68, "g": 69, "for": 70, "per": 71, "is": 72, "et": 73, ":**": 74, "van": 75, "name": 76, "strong": 77, "il": 78, "con": 79, "}": 80, "un": 81, "ie": 82, "m": 83, "pers": 84, "]": 85, "ge": 86, "des": 87, "der": 88, "ir": 89, "nummer": 90, "die": 91, "ar": 92, "number": 93, "q": 94, "es": 95, "te": 96, "pro": 97, ".\"": 98, "er": 99, "del": 100, "re": 101, "username": 102, "r": 103, "passport": 104, "driver": 105, "les": 106, "participant": 107, "=\"": 108, "\u00e0": 109, "ap": 110, "are": 111, "we": 112, "an": 113, "am": 114, "time": 115, "on": 116, "\\": 117, "at": 118, "date": 119, "pour": 120, "\u00e9": 121, "ident": 122, "ente": 123, "se": 124, "ver": 125, "met": 126, "ut": 127, "be": 128, "*": 129, "het": 130, "(": 131, "so": 132, "ung": 133, "ol": 134, "al": 135, "ale": 136, "license": 137, "part": 138, "x": 139, "para": 140, "mit": 141, "ante": 142, "as": 143, "ul": 144, "student": 145, "patient": 146, "su": 147, "pas": 148, "'s": 149, "om": 150, "ind": 151, "person": 152, "na": 153, "voor": 154, "ec": 155, "aci\u00f3n": 156, "op": 157, "que": 158, "individual": 159, "zu": 160, "with": 161, "out": 162, "><": 163, ":</": 164, "!": 165, "st": 166, "ort": 167, ")": 168, "los": 169, "azione": 170, "iva": 171, "-mail": 172, "res": 173, "team": 174, "ic": 175, "ire": 176, "...": 177, "est": 178, "|": 179, "ur": 180, "usuario": 181, "f\u00fcr": 182, "im": 183, "ungs": 184, "it": 185, "ter": 186, "look": 187, ":f": 188, "form": 189, ":d": 190, "your": 191, ":c": 192, "individ": 193, "ent": 194, "ers": 195, ":a": 196, ":b": 197, "\":\"": 198, "ad": 199, "ton": 200, "our": 201, "um": 202, "_id": 203, "mail": 204, "@a": 205, "-ad": 206, "ato": 207, "ch": 208, "ben": 209, "sociale": 210, "ere": 211, ":e": 212, "@hotmail": 213, "ab": 214, "@gmail": 215, "or": 216, "oon": 217, "@yahoo": 218, "ota": 219, "pect": 220, "utan": 221, "erv": 222, "address": 223, "me": 224, "card": 225, "data": 226, "een": 227, "alle": 228, "ig": 229, "teil": 230, "em": 231, "ag": 232, "che": 233, "persona": 234, "inform": 235, "du": 236, "plan": 237, "iamo": 238, "you": 239, "us": 240, "he": 241, "gr": 242, "vers": 243, "mer": 244, "ass": 245, "ons": 246, "sie": 247, "ing": 248, "ed": 249, "support": 250, "pass": 251, "bew": 252, "encia": 253, "\\\"": 254, "\">": 255, "lic": 256, "rij": 257, "port": 258, "---": 259, "birth": 260, "ia": 261, "von": 262, "las": 263, "aus": 264, "hr": 265, "personal": 266, "security": 267, "sch": 268, "una": 269, "all": 270, "ant": 271, "ist": 272, "details": 273, "information": 274, "numero": 275, "os": 276, "aan": 277, "po": 278, "zial": 279, "**:": 280, "js": 281, "ien": 282, "n\u00famero": 283, "votre": 284, "att": 285, "zeit": 286, "\u00ba": 287, "\u00e8": 288, "ha": 289, "uo": 290, "vous": 291, "pat": 292, "art": 293, "ik": 294, "icher": 295, "this": 296, "contact": 297, "health": 298, "onder": 299, "_number": 300, "psych": 301, "ten": 302, "ts": 303, "vo": 304, "title": 305, "den": 306, "pre": 307, "set": 308, "fecha": 309, "ac": 310, "della": 311, "\\u": 312, "sp": 313, "ado": 314, "ges": 315, "ra": 316, "auf": 317, "ke": 318, "dat": 319, ".\\": 320, "gebru": 321, "nehmer": 322, "io": 323, "ivid": 324, "br": 325, "hora": 326, "pr": 327, "num\u00e9ro": 328, ".\",": 329, "tr": 330, "ce": 331, "end": 332, "],": 333, "oud": 334, "ive": 335, "ita": 336, "vi": 337, "it\u00e9": 338, "fe": 339, "over": 340, "datum": 341, "orte": 342, "ione": 343, "ken": 344, "je": 345, "por": 346, "bij": 347, "geb": 348, "vol": 349, "th": 350, "bo": 351, "ich": 352, "ungen": 353, "ep": 354, "\u00fc": 355, "feedback": 356, "it\u00e0": 357, "ond": 358, "da": 359, "legal": 360, "<li": 361, "ies": 362, "resse": 363, "ier": 364, "ou": 365, "no": 366, "_": 367, "program": 368, "conduc": 369, "ris": 370, "det": 371, "ij": 372, "by": 373, "\u00e9s": 374, ".</": 375, "ief": 376, "idad": 377, "heure": 378, "af": 379, "best": 380, "ma": 381, "ka": 382, "acimiento": 383, "ro": 384, "pl": 385, "adresse": 386, "gu": 387, "mi": 388, "if": 389, "perm": 390, "inter": 391, "s\u00e9curit\u00e9": 392, "bet": 393, "wir": 394, "ite": 395, "ida": 396, "ri": 397, "azioni": 398, "sur": 399, "dei": 400, "_license": 401, "ess": 402, "ps": 403, "utzer": 404, "ario": 405, "ische": 406, "condu": 407, "lo": 408, "lichen": 409, "ico": 410, "ern": 411, "ica": 412, "particip": 413, "nel": 414, "ikers": 415, "assessment": 416, "ett": 417, "asc": 418, "educ": 419, "si": 420, "nous": 421, "une": 422, "ati": 423, "user": 424, "dans": 425, "uw": 426, "ihre": 427, "chein": 428, "iz": 429, "ven": 430, "com": 431, "nombre": 432, "atie": 433, "ige": 434, "will": 435, "gen": 436, "ous": 437, "leg": 438, "type": 439, "correo": 440, "az": 441, "ende": 442, "ein": 443, "comment": 444, "ora": 445, "cord": 446, "av": 447, "za": 448, "plural": 449, "session": 450, "enza": 451, "pekt": 452, "seguridad": 453, "></": 454, "gro": 455, "ci": 456, "client": 457, "onze": 458, "izzo": 459, "singular": 460, "\\\",": 461, "ens": 462, "passe": 463, "med": 464, "amente": 465, "sal": 466, "zur": 467, "uit": 468, "igen": 469, "ze": 470, "their": 471, "uns": 472, "dass": 473, "dr": 474, "ont": 475, "elijke": 476, "age": 477, "ert": 478, "td": 479, "not": 480, "ste": 481, "ef": 482, "str": 483, "electr\u00f3nico": 484, "nos": 485, "ivo": 486, "'\u00e9": 487, "zijn": 488, "<p": 489, "ation": 490, "gli": 491, "ca": 492, "sobre": 493, "amos": 494, "num": 495, "ment": 496, "olog": 497, "kel": 498, "alla": 499, "ak": 500, "ata": 501, "r\u00e9": 502, "\u00fcber": 503, "ne": 504, "atum": 505, "era": 506, "ve": 507, "orted": 508, "notre": 509, "garant": 510, "ile": 511, "ber": 512, "bre": 513, "iente": 514, "issance": 515, "label": 516, "ologie": 517, "este": 518, "weis": 519, "therapy": 520, "ados": 521, "nom": 522, "nt": 523, "participants": 524, "heid": 525, "seg": 526, "uti": 527, "og": 528, "ai": 529, ":\\": 530, "documento": 531, "tag": 532, "icht": 533, "das": 534, "ure": 535, "org": 536, "that": 537, "iker": 538, "\u00fchr": 539, "cc": 540, "ins": 541, "delle": 542, "i\u00f3n": 543, "ate": 544, "discuss": 545, "qu": 546, "description": 547, "dell": 548, "online": 549, "div": 550, "esper": 551, "co": 552, "anti": 553, "ada": 554, "ii": 555, "sono": 556, ";": 557, "\u00a1": 558, "als": 559, "sc": 560, "?": 561, "ific": 562, "impact": 563, "_address": 564, "ull": 565, "ore": 566, "ando": 567, "eln": 568, "cont": 569, "val": 570, "ren": 571, "ord": 572, "ieve": 573, "eine": 574, "have": 575, "int": 576, "video": 577, "uen": 578, "cert": 579, "gi": 580, "community": 581, "amento": 582, "direcci\u00f3n": 583, "acc": 584, "pm": 585, "html": 586, "her": 587, "iss": 588, "bb": 589, "iv": 590, "bien": 591, "let": 592, "tutti": 593, "deze": 594, "salud": 595, "zza": 596, "progress": 597, "up": 598, "cons": 599, "disc": 600, "antes": 601, "ee": 602, "reg": 603, "ue": 604, "men": 605, "app": 606, "\u00dfen": 607, "king": 608, "mental": 609, "ss": 610, "ger": 611, "ihnen": 612, "sic": 613, "nut": 614, "par": 615, "contrib": 616, "\\t": 617, "vriend": 618, "avec": 619, "ations": 620, "perspective": 621, "ici": 622, "ales": 623, "from": 624, "birthdate": 625, "discussion": 626, "its": 627, "fa": 628, "head": 629, "individuals": 630, "ari": 631, "sus": 632, "iques": 633, "eren": 634, "heits": 635, "evaluation": 636, "fre": 637, "services": 638, "eb": 639, "ff": 640, "management": 641, "import": 642, "sv": 643, "\u00e9t": 644, "_a": 645, "ice": 646, "dd": 647, "gez": 648, "well": 649, "fra": 650, "appro": 651, "role": 652, "sind": 653, "ique": 654, "au": 655, "db": 656, "elen": 657, "sing": 658, "dank": 659, "d\u00e9": 660, "zione": 661, "ba": 662, "bes": 663, "please": 664, "\u00e9e": 665, "sant\u00e9": 666, "cb": 667, "education": 668, "access": 669, "{\"": 670, "bru": 671, "ok": 672, "wer": 673, "):": 674, "uto": 675, "nome": 676, "rest": 677, "tra": 678, "chat": 679, "son": 680, "implement": 681, "quipe": 682, "wij": 683, "action": 684, "span": 685, "fr": 686, "_card": 687, "zo": 688, "kom": 689, "hier": 690, "<html": 691, "**,": 692, "enz": 693, "bere": 694, "ew": 695, ".m": 696, "iale": 697, "ieren": 698, "ces": 699, "conf": 700, "aciones": 701, "ement": 702, "ativo": 703, "ans": 704, "fc": 705, "ost": 706, "\u00e9es": 707, "fb": 708, "bed": 709, "pe": 710, ".b": 711, "disk": 712, "lement": 713, "carte": 714, "iali": 715, "eg": 716, "mo": 717, "ach": 718, "document": 719, "ti": 720, "ids": 721, "_b": 722, ".f": 723, "samen": 724, "ings": 725, "gest": 726, "isse": 727, "freund": 728, "df": 729, "any": 730, "communication": 731, "cl": 732, "<body": 733, "ion": 734, "imento": 735, "od": 736, "tijd": 737, "nd": 738, "ob": 739, "present": 740, "stress": 741, "non": 742, "seguro": 743, "subject": 744, "dc": 745, "oc": 746, "ug": 747, "care": 748, "sich": 749, "fd": 750, "bd": 751, "werden": 752, "todos": 753, "sessions": 754, "[\"": 755, "izz": 756, "platform": 757, "act": 758, "forum": 759, "pi": 760, "<head": 761, "bc": 762, "sh": 763, "sul": 764, "olare": 765, "do": 766, "aj": 767, "party": 768, "cd": 769, "ah": 770, "enum": 771, ".s": 772, "ub": 773, "member": 774, ":*": 775, "ek": 776, "ther": 777, "kind": 778, "heit": 779, "zung": 780, "dit": 781, "ativa": 782, "carta": 783, "\u00e4": 784, "identification": 785, "cf": 786, "can": 787, "research": 788, "mem": 789, ">\\": 790, "```": 791, "posit": 792, "ants": 793, "_of": 794, "verb": 795, "hebben": 796, "my": 797, "training": 798, "record": 799, "aa": 800, "heeft": 801, "imiento": 802, "mar": 803, "dem": 804, "off": 805, "applicant": 806, "lich": 807, "waar": 808, "ae": 809, "ito": 810, "belang": 811, "cod": 812, "continu": 813, "sulla": 814, "emen": 815, "respons": 816, "_time": 817, "bf": 818, "informaci\u00f3n": 819, "zer": 820, "cliente": 821, "apia": 822, "!\"": 823, "enti": 824, "izione": 825, "wa": 826, "tous": 827, "child": 828, "come": 829, "elle": 830, "liche": 831, "<h": 832, "body": 833, "skills": 834, "location": 835, "bei": 836, "ano": 837, "ust": 838, "ott": 839, ".k": 840, "_c": 841, "prom": 842, "fol": 843, "ede": 844, "ric": 845, "arte": 846, "vos": 847, "-f": 848, "equipo": 849, "aires": 850, "ser": 851, "ex": 852, "ide": 853, "dst": 854, "'utilisateur": 855, "text": 856, "ensure": 857, "during": 858, "step": 859, "\u00f3": 860, "ang": 861, "ele": 862, "zi": 863, "kt": 864, "engagement": 865, "pet": 866, "evalu": 867, "ay": 868, "school": 869, "naar": 870, "dni": 871, "wie": 872, "merc": 873, "recht": 874, "formal": 875, "treatment": 876, "law": 877, "cette": 878, "privacy": 879, "_d": 880, "favor": 881, "report": 882, "ions": 883, "durante": 884, "incident": 885, "acht": 886, "info": 887, "eng": 888, "tu": 889, "sw": 890, "esta": 891, "parent": 892, "ivi": 893, "divers": 894, "bitte": 895, "vid": 896, "input": 897, "ot": 898, "ient": 899, "crucial": 900, "zen": 901, "ance": 902, "uer": 903, "ussion": 904, "utilisateur": 905, "ine": 906, "ritte": 907, "learning": 908, "gent": 909, "vor": 910, "ative": 911, "cor": 912, "background": 913, "ea": 914, "ihr": 915, "behavior": 916, "bi": 917, "ragen": 918, "process": 919, "haben": 920, "dispos": 921, "jan": 922, "compliance": 923, "able": 924, "utf": 925, "digital": 926, "forme": 927, "aux": 928, "util": 929, "\u00e1": 930, "ank": 931, "post": 932, "ving": 933, "plur": 934, "tot": 935, "provide": 936, "ru": 937, "man": 938, "value": 939, "ux": 940, "behand": 941, "burgers": 942, "personne": 943, "collabor": 944, "project": 945, "weiter": 946, "ification": 947, "salute": 948, "thank": 949, "<ul": 950, "serv": 951, "questo": 952, "eff": 953, "vens": 954, "gee": 955, "nostro": 956, "insights": 957, "isi": 958, ".d": 959, "ied": 960, "eter": 961, "ina": 962, "ta": 963, "prof": 964, "gew": 965, "ov": 966, "mon": 967, "iso": 968, "inv": 969, "ud": 970, "bu": 971, "pot": 972, "ura": 973, "laten": 974, "paz": 975, "emos": 976, "colabor": 977, "sont": 978, "into": 979, "respect": 980, "erd": 981, "prop": 982, "naam": 983, "eling": 984, "rich": 985, "qui": 986, "comp": 987, "_details": 988, "was": 989, "agreement": 990, "interess": 991, "richt": 992, "udiante": 993, "uc": 994, "uk": 995, "sicher": 996, "employee": 997, "ian": 998, "lie": 999, "pt": 1000, "cr": 1001, "aire": 1002, "strategies": 1003, "_name": 1004, "ischen": 1005, "provided": 1006, "review": 1007, "recent": 1008, "iche": 1009, "_e": 1010, "via": 1011, "gh": 1012, "\u00famero": 1013, "password": 1014, "_f": 1015, "kl": 1016, "ise": 1017, "nuestro": 1018, "chen": 1019, "nuestra": 1020, "positive": 1021, "door": 1022, "adas": 1023, "enden": 1024, "wird": 1025, "diverse": 1026, "work": 1027, "rend": 1028, "self": 1029, "tua": 1030, "fis": 1031, "ivamente": 1032, "iet": 1033, "importante": 1034, "bild": 1035, "ificaci\u00f3n": 1036, "ja": 1037, "ard": 1038, "emp": 1039, "lastname": 1040, "coin": 1041, "',": 1042, "),": 1043, "ft": 1044, "idades": 1045, "ged": 1046, "programma": 1047, ".g": 1048, "datos": 1049, "activity": 1050, "aggio": 1051, "application": 1052, "enc": 1053, "students": 1054, "sua": 1055, "ly": 1056, "assist": 1057, "regards": 1058, "attention": 1059, "test": 1060, "ain": 1061, "reement": 1062, "activities": 1063, "request": 1064, "durch": 1065, "about": 1066, "getto": 1067, "cada": 1068, "ola": 1069, "unter": 1070, "forn": 1071, "ib": 1072, "zusammen": 1073, "\"id": 1074, "mente": 1075, "collaboration": 1076, "cher": 1077, "comunic": 1078, "service": 1079, "informations": 1080, "has": 1081, "ast": 1082, "rec": 1083, ".,": 1084, "them": 1085, "question": 1086, "ador": 1087, "aff": 1088, "activ": 1089, "uf": 1090, "/a": 1091, "terior": 1092, "rag": 1093, "ensch": 1094, "icip": 1095, "unt": 1096, "izi": 1097, "norm": 1098, "unserer": 1099, "each": 1100, "trans": 1101, "eld": 1102, "use": 1103, "cre": 1104, "more": 1105, "ng": 1106, "policy": 1107, "ell": 1108, "discussions": 1109, "tem": 1110, "educational": 1111, "chi": 1112, "expert": 1113, "sens": 1114, "cale": 1115, "-being": 1116, "ias": 1117, "group": 1118, "development": 1119, "ill": 1120, "embre": 1121, "\u00f6": 1122, "open": 1123, "further": 1124, "medical": 1125, "elijk": 1126, "jur": 1127, "va": 1128, "aria": 1129, "-k": 1130, "ingen": 1131, "entre": 1132, "oct": 1133, "family": 1134, "stra": 1135, "wel": 1136, "strateg": 1137, "informatie": 1138, "twe": 1139, "gn": 1140, "endo": 1141, "ijd": 1142, "sa": 1143, "orn": 1144, "\":{": 1145, "atore": 1146, "anza": 1147, "cci\u00f3n": 1148, "second": 1149, "-m": 1150, "izar": 1151, "meeting": 1152, "nu": 1153, "emer": 1154, "elt": 1155, "ih": 1156, "iven": 1157, "illez": 1158, "pr\u00e9": 1159, "log": 1160, "icas": 1161, "punkt": 1162, "academic": 1163, "ui": 1164, "nis": 1165, "shared": 1166, "vere": 1167, "ament": 1168, "may": 1169, "analysis": 1170, "iteit": 1171, "zwe": 1172, "ierung": 1173, "eh": 1174, "fin": 1175, "hun": 1176, "_date": 1177, "*:": 1178, "como": 1179, ".p": 1180, "fl": 1181, "ini": 1182, "follow": 1183, "\",\"": 1184, "ienza": 1185, "unique": 1186, "'app": 1187, "ents": 1188, "dev": 1189, "iver": 1190, "organ": 1191, "bon": 1192, "fo": 1193, "reatment": 1194, "iones": 1195, "participation": 1196, "uz": 1197, "stud": 1198, "sport": 1199, "\\\"\\": 1200, "ateg": 1201, "parte": 1202, "nost": 1203, "emotional": 1204, "bar": 1205, "ole": 1206, "enhance": 1207, "akt": 1208, "ichten": 1209, "iert": 1210, "ili": 1211, ".c": 1212, "healthcare": 1213, "nella": 1214, "virtual": 1215, "content": 1216, "ana": 1217, "proposal": 1218, "comprom": 1219, "ph": 1220, "equ": 1221, ".h": 1222, "dedic": 1223, "tuo": 1224, "key": 1225, "agen": 1226, "suo": 1227, "m\u00e1s": 1228, "event": 1229, "ju": 1230, "dan": 1231, "important": 1232, "oh": 1233, "questions": 1234, "_info": 1235, "arbeit": 1236, "caso": 1237, "practices": 1238, "amo": 1239, "these": 1240, "comments": 1241, "forma": 1242, "ev": 1243, "wi": 1244, "orno": 1245, "\u00ed": 1246, "account": 1247, "success": 1248, "gra": 1249, "\u00eda": 1250, "oment": 1251, "\u00e9t\u00e9": 1252, "degli": 1253, "through": 1254, "rap": 1255, "techniques": 1256, "estr": 1257, "<br": 1258, "sign": 1259, "jour": 1260, "worden": 1261, "nostra": 1262, "xml": 1263, "beh": 1264, "ani": 1265, "\u00eb": 1266, "ima": 1267, "emoc": 1268, "hand": 1269, ".l": 1270, "'int": 1271, "importance": 1272, "doctype": 1273, "nen": 1274, "rd": 1275, "great": 1276, "cur": 1277, "place": 1278, "lang": 1279, "uito": 1280, "techn": 1281, "<!": 1282, "blog": 1283, "zz": 1284, "\u00df": 1285, "ho": 1286, "ino": 1287, "risk": 1288, "consider": 1289, "pac": 1290, "graz": 1291, "sesi\u00f3n": 1292, "environment": 1293, "counseling": 1294, "ete": 1295, "_birth": 1296, "tratt": 1297, "dati": 1298, "dire": 1299, "ido": 1300, "hat": 1301, "suiv": 1302, "ologia": 1303, "mat": 1304, "ct": 1305, "monitor": 1306, "ann": 1307, "go": 1308, "additional": 1309, "public": 1310, "embro": 1311, "high": 1312, "sf": 1313, "utz": 1314, "forward": 1315, "\"],": 1316, "aw": 1317, "wicht": 1318, "ancia": 1319, "_g": 1320, "ional": 1321, "miglior": 1322, "ioni": 1323, "mentor": 1324, "_type": 1325, "ande": 1326, "uno": 1327, "besch": 1328, "iten": 1329, "(e": 1330, "ring": 1331, "comport": 1332, "col": 1333, "tro": 1334, "sout": 1335, "k\u00f6nnen": 1336, "sein": 1337, "anal": 1338, "new": 1339, "focus": 1340, "anno": 1341, "lio": 1342, "\u00f1a": 1343, "required": 1344, "understanding": 1345, "].": 1346, "campo": 1347, "regarding": 1348, "acad": 1349, "verd": 1350, "paciente": 1351, "kon": 1352, "profession": 1353, "[y": 1354, ",\\": 1355, "preferred": 1356, "-s": 1357, "soc": 1358, "oyo": 1359, "members": 1360, "status": 1361, "rights": 1362, "sm": 1363, "\u00e9ro": 1364, "following": 1365, "uch": 1366, "ene": 1367, "mes": 1368, "plate": 1369, "autor": 1370, "cos\u00ec": 1371, "ck": 1372, "informat": 1373, "stre": 1374, "zal": 1375, "contract": 1376, "ga": 1377, "rig": 1378, "priv": 1379, "participaci\u00f3n": 1380, "within": 1381, "pen": 1382, "car": 1383, "genden": 1384, "aggi": 1385, "ember": 1386, "ali": 1387, "regular": 1388, "anz": 1389, "imp": 1390, "stellen": 1391, "udiant": 1392, "amiento": 1393, "response": 1394, "els": 1395, "rit": 1396, "unterst\u00fct": 1397, "olog\u00eda": 1398, "like": 1399, "uard": 1400, "reset": 1401, "lu": 1402, "cas": 1403, "enrich": 1404, "case": 1405, "gende": 1406, "m\u00f6chten": 1407, "f\u00fchr": 1408, "kr": 1409, "ame": 1410, "consent": 1411, "iel": 1412, ".'": 1413, "rok": 1414, "'h": 1415, "fond": 1416, "performance": 1417, "gt": 1418, "arr": 1419, "lin": 1420, "procedure": 1421, "iser": 1422, "vent": 1423, "aten": 1424, "unto": 1425, "rent": 1426, "arg": 1427, "zoek": 1428, "proceso": 1429, "actions": 1430, "ms": 1431, "concern": 1432, "cer": 1433, "questa": 1434, "th\u00e9": 1435, "inclus": 1436, "sn": 1437, "raz": 1438, "kunnen": 1439, "vert": 1440, "neces": 1441, "mal": 1442, "bl": 1443, "ahr": 1444, "mess": 1445, "beg": 1446, "ker": 1447, "study": 1448, "help": 1449, "min": 1450, "dis": 1451, "conform": 1452, "nod": 1453, "erte": 1454, "toute": 1455, "peer": 1456, "***": 1457, "lt": 1458, "estar": 1459, "regulations": 1460, "'clock": 1461, "unde": 1462, "poss": 1463, "erf": 1464, "strategy": 1465, "special": 1466, "needs": 1467, "rel": 1468, "uli": 1469, "ped": 1470, "dispon": 1471, "espa": 1472, "_h": 1473, "august": 1474, "ace": 1475, "-b": 1476, "ys": 1477, "contin": 1478, "virt": 1479, "grup": 1480, "engage": 1481, "<title": 1482, "\"]": 1483, "sommes": 1484, "language": 1485, "vig": 1486, "willen": 1487, "nederland": 1488, "nach": 1489, "parties": 1490, "nc": 1491, "_plan": 1492, "\"name": 1493, "pa": 1494, "atta": 1495, "pres": 1496, ".t": 1497, "assistance": 1498, "dir": 1499, "programs": 1500, "ity": 1501, "stand": 1502, "gel": 1503, "dur": 1504, "ks": 1505, "ses": 1506, "iat": 1507, "ilen": 1508, "\u00e9m": 1509, "icos": 1510, "oy": 1511, "uri": 1512, "quest": 1513, "ullen": 1514, "programme": 1515, "quality": 1516, "eder": 1517, "entario": 1518, "safety": 1519, "patients": 1520, "aut": 1521, "diese": 1522, "valuable": 1523, "here": 1524, "intervention": 1525, "psychology": 1526, "\u00e1n": 1527, "nov": 1528, "\u00fcler": 1529, "unsere": 1530, "records": 1531, "emergency": 1532, "rem": 1533, "mod": 1534, "\u00e4t": 1535, "oz": 1536, "course": 1537, "ko": 1538, "improvement": 1539, "sg": 1540, "aring": 1541, "einen": 1542, "idos": 1543, "led": 1544, "han": 1545, "order": 1546, "fer": 1547, "wik": 1548, "niet": 1549, "leur": 1550, "\u00e9ment": 1551, "pi\u00f9": 1552, "one": 1553, "ign": 1554, ">d": 1555, "prot": 1556, "ifs": 1557, "m\u00e9d": 1558, "chiar": 1559, "segu": 1560, "bs": 1561, "result": 1562, ".n": 1563, "amb": 1564, "\u00e9r": 1565, "sol": 1566, "programa": 1567, "version": 1568, "perspectives": 1569, ".v": 1570, "ios": 1571, "olo": 1572, "dom": 1573, "uale": 1574, "specific": 1575, "recommend": 1576, "sk": 1577, "ix": 1578, "nah": 1579, "uelle": 1580, "ainsi": 1581, "nahme": 1582, "contacto": 1583, "tele": 1584, "aje": 1585, "situ": 1586, "signific": 1587, "expertise": 1588, "urs": 1589, "appointment": 1590, "esp": 1591, "ult": 1592, ">,": 1593, "omen": 1594, "\"\",": 1595, "cht": 1596, "gestion": 1597, "experience": 1598, "mm": 1599, "]:": 1600, "notes": 1601, "jo": 1602, "eval": 1603, "ero": 1604, "protection": 1605, "\u00e4r": 1606, "gesch": 1607, "proporcion": 1608, "rt": 1609, "ange": 1610, "frag": 1611, "field": 1612, "&": 1613, "imm": 1614, "nten": 1615, "-up": 1616, "\u00e4\u00df": 1617, "peg": 1618, "enze": 1619, "imenti": 1620, "been": 1621, "november": 1622, "ei": 1623, "ider": 1624, "chaque": 1625, "nelle": 1626, "experiences": 1627, "future": 1628, "erg": 1629, "suite": 1630, "ellen": 1631, "timestamp": 1632, "april": 1633, "bit": 1634, "obre": 1635, "potential": 1636, "conversation": 1637, "ret": 1638, "plus": 1639, "iano": 1640, "cart": 1641, "nuestros": 1642, "given": 1643, "objet": 1644, "enci\u00f3n": 1645, "updates": 1646, "changes": 1647, "challenges": 1648, "format": 1649, "cualquier": 1650, "acias": 1651, "hor": 1652, "ial": 1653, "gemeins": 1654, "dieser": 1655, "stato": 1656, "attivit\u00e0": 1657, "initiatives": 1658, "igung": 1659, "compartir": 1660, "ey": 1661, "ni": 1662, "iti": 1663, "exp": 1664, "gem": 1665, "rek": 1666, "cogn": 1667, "complet": 1668, "aprend": 1669, "iesta": 1670, "\u00bf": 1671, "\"time": 1672, "ll": 1673, "+": 1674, "it\u00e4t": 1675, "atenci\u00f3n": 1676, "continue": 1677, "get": 1678, "such": 1679, "link": 1680, "ader": 1681, "alt": 1682, "experiencia": 1683, "tema": 1684, "encias": 1685, "message": 1686, "intern": 1687, "ry": 1688, "effect": 1689, "how": 1690, "hl": 1691, "real": 1692, "ht": 1693, "ors": 1694, "hal": 1695, "uent": 1696, "ape": 1697, "eker": 1698, "effic": 1699, "\u00e4lt": 1700, "beach": 1701, "professional": 1702, "ong": 1703, "\u00e9li": 1704, ">n": 1705, "izio": 1706, "utilis": 1707, "-vous": 1708, "sanit": 1709, "uso": 1710, "komment": 1711, "encoding": 1712, "aver": 1713, "tit": 1714, "valuation": 1715, "ances": 1716, "pr\u00fc": 1717, "modo": 1718, "active": 1719, "eler": 1720, "consult": 1721, "uar": 1722, "woord": 1723, "sett": 1724, "presente": 1725, "estable": 1726, "charset": 1727, "ez": 1728, "sess": 1729, "oren": 1730, "mb": 1731, "duration": 1732, "doc": 1733, "ena": 1734, "ivers": 1735, "mai": 1736, "therap": 1737, "kijken": 1738, "werp": 1739, "reff": 1740, "contr": 1741, "iembre": 1742, "fall": 1743, "lij": 1744, "ibilit": 1745, "compet": 1746, "s\u00e9": 1747, "ligne": 1748, "encial": 1749, "ath": 1750, "need": 1751, "uy": 1752, "halt": 1753, "itez": 1754, "servicios": 1755, "segunda": 1756, "true": 1757, "decision": 1758, "\"},": 1759, "actual": 1760, "pliance": 1761, "innov": 1762, "personnel": 1763, "erc": 1764, "ront": 1765, "dar": 1766, "initial": 1767, "animal": 1768, "psychological": 1769, "sta": 1770, "steam": 1771, "digit": 1772, "zum": 1773, "ual": 1774, "rol": 1775, "nl": 1776, "segment": 1777, "control": 1778, "-d": 1779, "invest": 1780, "darauf": 1781, "weitere": 1782, "init": 1783, "brit": 1784, "meta": 1785, "eden": 1786, "pos": 1787, "mich": 1788, "lijke": 1789, "inspir": 1790, "comunidad": 1791, "together": 1792, "wo": 1793, "mir": 1794, "mg": 1795, "stim": 1796, "hoe": 1797, "membres": 1798, "'in": 1799, "atto": 1800, "sharing": 1801, "begin": 1802, "ervention": 1803, "ijk": 1804, "trag": 1805, "icional": 1806, "observ": 1807, "club": 1808, "september": 1809, "encourage": 1810, "effective": 1811, "next": 1812, "ty": 1813, "inf": 1814, "iter": 1815, "rice": 1816, "acter": 1817, "proced": 1818, "ativas": 1819, "waiver": 1820, "teacher": 1821, "ilit": 1822, "confidential": 1823, "chr": 1824, "itz": 1825, "ijn": 1826, "wichtig": 1827, "uum": 1828, "anc": 1829, "hi": 1830, "erna": 1831, "bur": 1832, "connexion": 1833, "itzerland": 1834, "vr": 1835, "amen": 1836, "orgen": 1837, "geme": 1838, "i\u00eb": 1839, "ihrer": 1840, "problem": 1841, "method": 1842, "kg": 1843, "tober": 1844, "innen": 1845, "iasi": 1846, "prote": 1847, "system": 1848, "last": 1849, "ns": 1850, "bel": 1851, "conc": 1852, "ences": 1853, "cruc": 1854, "eil": 1855, "m\u00e9dica": 1856, "r\u00e9g": 1857, "abor": 1858, "bas": 1859, "_security": 1860, "fn": 1861, "lung": 1862, "qual": 1863, "donn\u00e9es": 1864, "mejorar": 1865, "ital": 1866, "analyse": 1867, "polit": 1868, "ativ": 1869, "acceso": 1870, "mis": 1871, "_status": 1872, "_n": 1873, "olt": 1874, "gang": 1875, "rique": 1876, "estudiantes": 1877, "journey": 1878, "tools": 1879, "aspect": 1880, "mindfulness": 1881, "ponsible": 1882, "pediatric": 1883, "ense": 1884, "tails": 1885, "fort": 1886, "oor": 1887, "provider": 1888, "ple": 1889, "ane": 1890, "wil": 1891, "wordt": 1892, "prima": 1893, "oder": 1894, "check": 1895, "verw": 1896, "isation": 1897, "invit": 1898, "nell": 1899, "<?": 1900, "#": 1901, "ives": 1902, "rad": 1903, "apist": 1904, "orm": 1905, "mens": 1906, "leer": 1907, ".j": 1908, "fg": 1909, "results": 1910, "gl": 1911, "tout": 1912, "coll": 1913, "resources": 1914, "ensemble": 1915, "abilit": 1916, "ques": 1917, "nieuwe": 1918, "untos": 1919, "efforts": 1920, "schedule": 1921, "anda": 1922, "aid": 1923, "isch": 1924, "\u00ef": 1925, "uele": 1926, "iales": 1927, "plataforma": 1928, "_i": 1929, "don": 1930, "reach": 1931, "pf": 1932, "--": 1933, "sb": 1934, "kk": 1935, "desarrollo": 1936, "einer": 1937, "\u00e4hr": 1938, "educaci\u00f3n": 1939, "manera": 1940, "section": 1941, "env": 1942, "zt": 1943, "studio": 1944, "n\u00e9": 1945, "opinion": 1946, "veil": 1947, "utt": 1948, "liste": 1949, "ua": 1950, "relevant": 1951, "mt": 1952, "-h": 1953, "ology": 1954, "spec": 1955, "as\u00ed": 1956, "tratamiento": 1957, "find": 1958, "financial": 1959, "itr": 1960, "cost": 1961, "firm": 1962, ").": 1963, "-l": 1964, "convers": 1965, "ats": 1966, "sl": 1967, "oi": 1968, "eerste": 1969, "ipo": 1970, "nicht": 1971, "unser": 1972, "aktiv": 1973, "vista": 1974, "monitoring": 1975, "ensuring": 1976, "issues": 1977, "gaming": 1978, "rg": 1979, "sex": 1980, "crisis": 1981, "keit": 1982, "iken": 1983, "partager": 1984, "essere": 1985, ".r": 1986, "\"?>": 1987, "gb": 1988, "conduct": 1989, "overall": 1990, "ax": 1991, "lid": 1992, "analy": 1993, "comprehensive": 1994, "technology": 1995, "ner": 1996, "uss": 1997, ">p": 1998, "ekt": 1999, "ml": 2000, "ald": 2001, "uire": 2002, "halten": 2003, "tecn": 2004, "below": 2005, "should": 2006, ".z": 2007, "ime": 2008, "-n": 2009, "apeut": 2010, "olle": 2011, "erde": 2012, "pr\u00e9c": 2013, "share": 2014, "exchange": 2015, "###": 2016, "imo": 2017, "protocol": 2018, "\u00fcr": 2019, "-g": 2020, "ler": 2021, "mention": 2022, "reun": 2023, "geben": 2024, "lavoro": 2025, "approach": 2026, "involved": 2027, "procedures": 2028, "`": 2029, "eth": 2030, "urer": 2031, "ivas": 2032, "werk": 2033, "loro": 2034, "collaborative": 2035, "__": 2036, "\u00e8s": 2037, "red": 2038, "oe": 2039, "cri": 2040, "meer": 2041, "-num": 2042, "tempo": 2043, "sui": 2044, "ricerca": 2045, "amenti": 2046, "based": 2047, "level": 2048, "gender": 2049, "univers": 2050, "mag": 2051, "travail": 2052, "-\u00eatre": 2053, "ambiente": 2054, "usted": 2055, "arn": 2056, "aug": 2057, "signature": 2058, "etails": 2059, "kont": 2060, "rip": 2061, "ute": 2062, "confer": 2063, "osten": 2064, "bez": 2065, "enf": 2066, "hope": 2067, "update": 2068, "staff": 2069, "assessments": 2070, "arm": 2071, "_j": 2072, "state": 2073, "union": 2074, "press": 2075, "uning": 2076, "\u00e8me": 2077, "iar": 2078, "registro": 2079, "aust": 2080, "marzo": 2081, "ono": 2082, "zig": 2083, "\u00f6r": 2084, "izzare": 2085, "izaci\u00f3n": 2086, "stem": 2087, "towards": 2088, "ures": 2089, "coping": 2090, "lect": 2091, "_level": 2092, "mijn": 2093, "jou": 2094, "demande": 2095, "ambio": 2096, "ld": 2097, "ki": 2098, "xx": 2099, "rr": 2100, "\u00e9l": 2101, "prez": 2102, "welcome": 2103, "prevent": 2104, "wet": 2105, "avons": 2106, "zug": 2107, "grund": 2108, "agosto": 2109, "detalles": 2110, "duc": 2111, "uter": 2112, "ateurs": 2113, "ieme": 2114, "uos": 2115, "pci\u00f3n": 2116, "frage": 2117, "solicitud": 2118, "usuarios": 2119, "ara": 2120, "uid": 2121, "ros": 2122, "laws": 2123, "term": 2124, "communic": 2125, "eten": 2126, "communaut\u00e9": 2127, "nement": 2128, "fung": 2129, "various": 2130, "oss": 2131, "kan": 2132, "uro": 2133, "edere": 2134, "chts": 2135, "kommen": 2136, "interact": 2137, "contributions": 2138, "exam": 2139, "uv": 2140, "emo": 2141, "erk": 2142, "wurde": 2143, "ici\u00f3n": 2144, "comentarios": 2145, "scheduled": 2146, "commitment": 2147, "ow": 2148, "measures": 2149, "zel": 2150, "parents": 2151, "land": 2152, "ade": 2153, "ced": 2154, "\u00e9n": 2155, "revis": 2156, "relacion": 2157, "ship": 2158, "between": 2159, "km": 2160, "gio": 2161, "represent": 2162, "vis": 2163, "asse": 2164, "mot": 2165, "unit": 2166, "achte": 2167, "consulta": 2168, "cumpl": 2169, ">s": 2170, "\ud83c\udf1f": 2171, "yaml": 2172, "inn": 2173, "\u00e9d": 2174, "blij": 2175, "ument": 2176, "noi": 2177, "izzazione": 2178, "l\u00ednea": 2179, "sido": 2180, "resolution": 2181, "today": 2182, "prior": 2183, "sit": 2184, "history": 2185, "attend": 2186, "terms": 2187, "ological": 2188, "dedication": 2189, "certification": 2190, "oll": 2191, "ibil": 2192, "dim": 2193, "bev": 2194, "ifiant": 2195, "ar\u00e1": 2196, ".w": 2197, "essential": 2198, "adapt": 2199, "wh": 2200, "/>": 2201, "guidelines": 2202, "start": 2203, "identity": 2204, "cognitive": 2205, "ya": 2206, "icol": 2207, "registr": 2208, "efect": 2209, "they": 2210, "first": 2211, "cultural": 2212, "growth": 2213, "valid": 2214, "outcomes": 2215, "-c": 2216, "fundamental": 2217, "zet": 2218, "alles": 2219, "ibili": 2220, "\u00f3g": 2221, "change": 2222, "workshops": 2223, "fan": 2224, "udi": 2225, "bis": 2226, "oper": 2227, "legen": 2228, "novembre": 2229, "-dess": 2230, "molto": 2231, "ude": 2232, "uj": 2233, "vement": 2234, "fs": 2235, "aci": 2236, "less": 2237, "ivos": 2238, "\u00ebn": 2239, "consul": 2240, "gerne": 2241, "keiten": 2242, "qualit\u00e0": 2243, "ogni": 2244, "menc": 2245, "create": 2246, "yn": 2247, "interventions": 2248, "concerns": 2249, "institution": 2250, "elf": 2251, "prefer": 2252, "termin": 2253, "wurden": 2254, "cimiento": 2255, "deutschland": 2256, "verf\u00fcg": 2257, "grupo": 2258, "acuerdo": 2259, "good": 2260, "goals": 2261, "local": 2262, "md": 2263, "awareness": 2264, "dam": 2265, "uel": 2266, "ener": 2267, "mut": 2268, "rah": 2269, "emot": 2270, "interesse": 2271, "fam": 2272, "vielen": 2273, "sistema": 2274, "conflict": 2275, "topic": 2276, "documents": 2277, "phone": 2278, "-p": 2279, "iers": 2280, "ster": 2281, "geh": 2282, "traitement": 2283, "rens": 2284, "seguir": 2285, "december": 2286, "confidentiality": 2287, "workshop": 2288, "related": 2289, "ags": 2290, "consultation": 2291, "erto": 2292, "lug": 2293, "aliment": 2294, "tiempo": 2295, "planning": 2296, "attendance": 2297, "zone": 2298, "umber": 2299, "ref": 2300, "\"}": 2301, "kn": 2302, "necess": 2303, "st\u00e4nd": 2304, "unden": 2305, "ethical": 2306, "gg": 2307, "standards": 2308, "hab": 2309, "cent": 2310, "wal": 2311, "sig": 2312, "binnen": 2313, "licht": 2314, "relev": 2315, "jug": 2316, "orer": 2317, "comunicaci\u00f3n": 2318, "uh": 2319, "inc": 2320, "recommended": 2321, "px": 2322, "emotion": 2323, "sent": 2324, "ved": 2325, "cm": 2326, "uur": 2327, "ager": 2328, "wicklung": 2329, "comunit\u00e0": 2330, "izzato": 2331, "mantener": 2332, "kh": 2333, "country": 2334, "verschill": 2335, "kte": 2336, "isten": 2337, "porte": 2338, "aseg": 2339, "other": 2340, "policies": 2341, "requirements": 2342, "notice": 2343, "vision": 2344, "proj": 2345, "division": 2346, "itti": 2347, "auto": 2348, "sten": 2349, "suppl": 2350, "nei": 2351, "some": 2352, "ny": 2353, "available": 2354, "secure": 2355, "war": 2356, "item": 2357, "pens": 2358, "iqu": 2359, "tant": 2360, "entwick": 2361, "it\u00e4": 2362, "diesem": 2363, "stata": 2364, "rs": 2365, "abs": 2366, "__________________": 2367, "dob": 2368, "oco": 2369, "ours": 2370, "rie": 2371, "hin": 2372, "entes": 2373, "\u20ac": 2374, "uzione": 2375, "current": 2376, "udos": 2377, "pp": 2378, "vm": 2379, "iger": 2380, "ets": 2381, "rim": 2382, "juni": 2383, "\\\",\\\"": 2384, "esser": 2385, "gesti\u00f3n": 2386, "innovative": 2387, "nutrition": 2388, "ments": 2389, "ness": 2390, "isk": 2391, "ym": 2392, "sug": 2393, "meld": 2394, "prev": 2395, "creat": 2396, "habil": 2397, "looking": 2398, "knowledge": 2399, "hen": 2400, "areas": 2401, "\u00fa": 2402, "\\\\": 2403, "ky": 2404, ".ch": 2405, "cat": 2406, "bn": 2407, "aron": 2408, "izin": 2409, ">c": 2410, "spe": 2411, "cheid": 2412, "eti": 2413, "_ip": 2414, "piano": 2415, "infant": 2416, "react": 2417, "verg": 2418, "sou": 2419, "domaine": 2420, "stehen": 2421, "conosc": 2422, "compart": 2423, "warm": 2424, "qq": 2425, "ello": 2426, "cond": 2427, "integr": 2428, "maal": 2429, "spre": 2430, "lista": 2431, "would": 2432, "matter": 2433, "sd": 2434, "jun": 2435, "\u00edn": 2436, "product": 2437, "adem": 2438, "avis": 2439, "explor": 2440, "iek": 2441, "verz": 2442, "ables": 2443, "leurs": 2444, "'acc": 2445, "unserem": 2446, "acci\u00f3n": 2447, "nosotros": 2448, "latest": 2449, "ith": 2450, "ober": 2451, "must": 2452, "interactions": 2453, "take": 2454, "speaker": 2455, "ls": 2456, "gs": 2457, "mp": 2458, "lb": 2459, "\u00e9ri": 2460, "ducation": 2461, "uta": 2462, "ove": 2463, "bied": 2464, "inden": 2465, "pati\u00ebnt": 2466, "beiter": 2467, "integration": 2468, "effectively": 2469, "nn": 2470, "holder": 2471, "forums": 2472, "zh": 2473, "zw": 2474, "?\"": 2475, "clin": 2476, "chn": 2477, "-team": 2478, "regul": 2479, "erti": 2480, "calidad": 2481, "antwort": 2482, "ihren": 2483, "destac": 2484, "engaging": 2485, "improve": 2486, "different": 2487, "ds": 2488, "tt": 2489, "note": 2490, "<meta": 2491, "erm": 2492, "rif": 2493, "atri": 2494, "enna": 2495, "zien": 2496, "zoals": 2497, "ellt": 2498, "detailed": 2499, "under": 2500, "yc": 2501, "providing": 2502, "ley": 2503, "environ": 2504, "len": 2505, "\u00e8ve": 2506, "allen": 2507, "financ": 2508, "emerg": 2509, "mani\u00e8re": 2510, "\u00e4ge": 2511, "bedeut": 2512, "oggi": 2513, "acidad": 2514, "proyecto": 2515, "mensaje": 2516, "were": 2517, "hesitate": 2518, "space": 2519, "hy": 2520, "avez": 2521, "anken": 2522, "dic": 2523, "fourn": 2524, "verbess": 2525, "\u00e1mbito": 2526, ">m": 2527, "promote": 2528, "situation": 2529, "sar": 2530, "grad": 2531, "\u00e7": 2532, "recipient": 2533, "lat": 2534, "ements": 2535, "eken": 2536, "igt": 2537, "hoy": 2538, "punto": 2539, "finds": 2540, "early": 2541, "cy": 2542, "rc": 2543, "complex": 2544, "ibilities": 2545, "rm": 2546, "jj": 2547, "sum": 2548, "benef": 2549, "imos": 2550, "gere": 2551, "prest": 2552, "desde": 2553, "uci\u00f3n": 2554, "make": 2555, "promoting": 2556, "among": 2557, "tes": 2558, "hd": 2559, "yl": 2560, "var": 2561, "nr": 2562, "exercises": 2563, "tn": 2564, "sin": 2565, "ista": 2566, "chers": 2567, "atori": 2568, "commentaire": 2569, "'ai": 2570, "'hui": 2571, "nehmen": 2572, "uellen": 2573, "invol": 2574, "risult": 2575, "trabajo": 2576, "confirm": 2577, "'\\": 2578, "cs": 2579, "plans": 2580, "kw": 2581, "prim": 2582, "\u00e9c": 2583, "organisation": 2584, "beit": 2585, "tp": 2586, "webinar": 2587, "conditions": 2588, "identified": 2589, "tel": 2590, "ander": 2591, "vind": 2592, "suis": 2593, "kommun": 2594, "itar": 2595, "physical": 2596, "instructions": 2597, "children": 2598, "day": 2599, "ication": 2600, "sleep": 2601, "igh": 2602, "vue": 2603, "lev": 2604, "zelf": 2605, "rouw": 2606, "qualit\u00e9": 2607, "arios": 2608, "rl": 2609, "ideas": 2610, "personalized": 2611, "nal": 2612, "zb": 2613, "xy": 2614, ">b": 2615, "ala": 2616, "issen": 2617, "disponible": 2618, "dav": 2619, "ibles": 2620, "spi": 2621, "processo": 2622, "building": 2623, "including": 2624, "py": 2625, "users": 2626, "np": 2627, "nh": 2628, "edu": 2629, "uten": 2630, "ram": 2631, "contest": 2632, "associ": 2633, "voir": 2634, "abbiamo": 2635, "adores": 2636, "mejor": 2637, "ayud": 2638, "who": 2639, "mr": 2640, "conducted": 2641, "purposes": 2642, "aspects": 2643, "essment": 2644, "ensen": 2645, "ues": 2646, "ona": 2647, "eta": 2648, ">:": 2649, "dez": 2650, "list": 2651, ">j": 2652, "dist": 2653, "availability": 2654, "agement": 2655, "hil": 2656, "steps": 2657, "ering": 2658, "vest": 2659, "grande": 2660, "investigaci\u00f3n": 2661, "hanno": 2662, "appreciate": 2663, "vention": 2664, ">e": 2665, "material": 2666, "writing": 2667, "agree": 2668, "tutor": 2669, "jq": 2670, "vs": 2671, ">w": 2672, "sam": 2673, "tx": 2674, "_form": 2675, "ress": 2676, "candid": 2677, "ais": 2678, "fen": 2679, "\u00fch": 2680, "enfants": 2681, "'est": 2682, "heute": 2683, "bamb": 2684, "necessary": 2685, "tailored": 2686, "week": 2687, "passion": 2688, "\"+": 2689, "<label": 2690, "media": 2691, "ule": 2692, "ww": 2693, "cal": 2694, "gar": 2695, "wd": 2696, "rid": 2697, "\":[": 2698, "apr": 2699, "succes": 2700, "'\u00e9t": 2701, "'un": 2702, "momento": 2703, "tiene": 2704, "everyone": 2705, "truly": 2706, "xb": 2707, "require": 2708, "cz": 2709, "pc": 2710, "ox": 2711, "arrival": 2712, "gy": 2713, "nam": 2714, "verification": 2715, "_person": 2716, "itness": 2717, "ook": 2718, "_ass": 2719, "fut": 2720, "mars": 2721, "ontvang": 2722, "temps": 2723, "mein": 2724, "sehr": 2725, "voi": 2726, "c\u00f3mo": 2727, "develop": 2728, "enhancing": 2729, "but": 2730, "wn": 2731, "]\"": 2732, "iy": 2733, "vy": 2734, "attent": 2735, "umen": 2736, "iding": 2737, "ils": 2738, "motiv": 2739, "lassen": 2740, "otre": 2741, "sujet": 2742, "prend": 2743, "ubre": 2744, "auch": 2745, "imientos": 2746, "leadership": 2747, "uly": 2748, "aim": 2749, "ator": 2750, "yp": 2751, "ql": 2752, "pan": 2753, "budget": 2754, "issue": 2755, "ese": 2756, "compte": 2757, "prat": 2758, "vid\u00e9o": 2759, "interv": 2760, "unseren": 2761, "gut": 2762, "wort": 2763, "hemos": 2764, "curriculum": 2765, "vero": 2766, "ational": 2767, "comm": 2768, "san": 2769, "zy": 2770, "ril": 2771, "?\\": 2772, "ome": 2773, "agent": 2774, "frequency": 2775, "rapport": 2776, "rei": 2777, "dag": 2778, "gebruik": 2779, "ennis": 2780, "oord": 2781, "regist": 2782, "\u00e7u": 2783, "d\u00e9veloppement": 2784, "conjunto": 2785, "clave": 2786, "otional": 2787, "ws": 2788, "moment": 2789, "position": 2790, "fi": 2791, "orse": 2792, "ding": 2793, "impl": 2794, "ores": 2795, "\u00f6g": 2796, "rac": 2797, "mati\u00e8re": 2798, "pers\u00f6n": 2799, "beiten": 2800, "siguientes": 2801, "ongoing": 2802, "adv": 2803, "esc": 2804, "math": 2805, "final": 2806, "mass": 2807, "iment": 2808, "ilig": 2809, "))": 2810, "nde": 2811, "prendre": 2812, "contrase\u00f1a": 2813, "messaging": 2814, "vel": 2815, "ience": 2816, "both": 2817, "daily": 2818, "ln": 2819, "prepar": 2820, "cp": 2821, "pg": 2822, "low": 2823, "oso": 2824, "_con": 2825, "web": 2826, "agnosis": 2827, "ifica": 2828, "zie": 2829, "lijk": 2830, "iosa": 2831, "comprend": 2832, "actividades": 2833, "explore": 2834, "vital": 2835, "software": 2836, "\u00f3n": 2837, "yo": 2838, "vv": 2839, "cho": 2840, "incl": 2841, "crit": 2842, "isateur": 2843, "illet": 2844, "ioso": 2845, "goal": 2846, "pu": 2847, "inclusive": 2848, "bt": 2849, "due": 2850, "cu": 2851, "sub": 2852, "tb": 2853, "article": 2854, "dl": 2855, "ritten": 2856, "enn": 2857, "famil": 2858, "loc": 2859, "labor": 2860, "fore": 2861, "wen": 2862, "orsch": 2863, "achten": 2864, "punt": 2865, "aujourd": 2866, "dazu": 2867, "altri": 2868, "relativ": 2869, "primera": 2870, "ibilidad": 2871, "est\u00e1": 2872, "using": 2873, "stay": 2874, "safe": 2875, "healthy": 2876, "connect": 2877, "ye": 2878, "guidance": 2879, "vg": 2880, "cn": 2881, "ogen": 2882, "uld": 2883, "west": 2884, "sp\u00e9c": 2885, "cuenta": 2886, "lavor": 2887, "conexi\u00f3n": 2888, "urg": 2889, "hol": 2890, "points": 2891, "feel": 2892, "mc": 2893, "summary": 2894, "class": 2895, "<input": 2896, "_l": 2897, "-t": 2898, "bod": 2899, "ded": 2900, "adj": 2901, "optim": 2902, "cred": 2903, "maint": 2904, "cui": 2905, "wat": 2906, "object": 2907, "ambient": 2908, "flex": 2909, "egen": 2910, "nte": 2911, "lei": 2912, "gebn": 2913, "overe": 2914, "manten": 2915, "posta": 2916, "construct": 2917, "culture": 2918, "ela": 2919, "sexual": 2920, "audit": 2921, "\u20e3": 2922, "rehabilitation": 2923, "aren": 2924, "iller": 2925, "eer": 2926, "quer": 2927, "\u00eatre": 2928, "accord": 2929, "forder": 2930, "ibile": 2931, "futuro": 2932, "acciones": 2933, "extr": 2934, "findings": 2935, "gd": 2936, "did": 2937, "submit": 2938, "partic": 2939, "':": 2940, "\u00fcck": 2941, "_de": 2942, "eurs": 2943, "trouver": 2944, "exp\u00e9rience": 2945, "upcoming": 2946, "ize": 2947, "organization": 2948, "better": 2949, "wt": 2950, "dedicated": 2951, "tk": 2952, "customer": 2953, "private": 2954, "dk": 2955, "behavioral": 2956, "rf": 2957, "national": 2958, "xt": 2959, "elling": 2960, ">f": 2961, "grade": 2962, "\"in": 2963, "ble": 2964, ">k": 2965, "abb": 2966, "trauma": 2967, "pun": 2968, "chten": 2969, "contro": 2970, "compr": 2971, "an\u00e1lisis": 2972, "estamos": 2973, "embros": 2974, "wx": 2975, "kb": 2976, "unknown": 2977, "human": 2978, "bek": 2979, "cours": 2980, "oins": 2981, "rapp": 2982, "ativos": 2983, "finden": 2984, "avanz": 2985, "pubb": 2986, "temas": 2987, "muy": 2988, "enh": 2989, "contribution": 2990, "international": 2991, "zm": 2992, "____": 2993, "ette": 2994, "task": 2995, "base": 2996, "ister": 2997, "xc": 2998, "eur": 2999, "ulp": 3000, "conse": 3001, "tus": 3002, "conten": 3003, "vie": 3004, "\u00e4h": 3005, "licher": 3006, "ahrungen": 3007, "osp": 3008, "aqu\u00ed": 3009, "candidate": 3010, "sen": 3011, "oo": 3012, "projects": 3013, "wb": 3014, "while": 3015, "protocols": 3016, "['": 3017, "sources": 3018, "ifications": 3019, "jk": 3020, "ao": 3021, "uni": 3022, "ruk": 3023, "partner": 3024, "foto": 3025, "schl": 3026, "avril": 3027, "&gt": 3028, "italia": 3029, "emente": 3030, "insightful": 3031, "ening": 3032, "mv": 3033, "born": 3034, "wm": 3035, "sto": 3036, ">t": 3037, "_email": 3038, "qt": 3039, "sem": 3040, "ares": 3041, "inst": 3042, "arti": 3043, "lors": 3044, "'im": 3045, "pratic": 3046, "sar\u00e0": 3047, "timeline": 3048, "hours": 3049, "hs": 3050, "room": 3051, "vp": 3052, "-j": 3053, "trust": 3054, "ifi": 3055, "rv": 3056, "sr": 3057, "ender": 3058, "dal": 3059, "anxiety": 3060, "oration": 3061, "clar": 3062, "hai": 3063, "proces": 3064, "ordo": 3065, "formulario": 3066, "igli": 3067, "meine": 3068, "sehen": 3069, "eventual": 3070, "izado": 3071, "ability": 3072, "fx": 3073, "uary": 3074, "enter": 3075, "jd": 3076, "sz": 3077, ")\\": 3078, "cv": 3079, "neh": 3080, "evid": 3081, "atz": 3082, "ouden": 3083, "laat": 3084, "iore": 3085, "super": 3086, "parti": 3087, "experi": 3088, "!\\": 3089, "yy": 3090, "dt": 3091, "third": 3092, "design": 3093, "mel": 3094, "iq": 3095, "yes": 3096, "ase": 3097, "\"d": 3098, "xf": 3099, "iff": 3100, "fine": 3101, "ail": 3102, "_information": 3103, "direct": 3104, "organis": 3105, "iden": 3106, "groupe": 3107, "recherche": 3108, "permet": 3109, "uest": 3110, "glich": 3111, "ahrung": 3112, "tras": 3113, "idas": 3114, "cabo": 3115, "iendo": 3116, "conoc": 3117, "cuid": 3118, "\"description": 3119, "significant": 3120, "ji": 3121, "condition": 3122, "medication": 3123, "resilience": 3124, "=": 3125, "wy": 3126, "interaction": 3127, "processing": 3128, "ounsel": 3129, "qw": 3130, "tor": 3131, "amount": 3132, "bin": 3133, "hart": 3134, "\"\"": 3135, "investig": 3136, "pati\u00eb": 3137, "agli": 3138, "r\u00e9s": 3139, "dello": 3140, "unters": 3141, "oluci\u00f3n": 3142, "pregunta": 3143, "jb": 3144, "player": 3145, "idential": 3146, "hello": 3147, "ades": 3148, "nv": 3149, "sym": 3150, "medic": 3151, "inner": 3152, "amp": 3153, "atica": 3154, "etherlands": 3155, "riz": 3156, "trait": 3157, "anche": 3158, "recommand": 3159, "igkeit": 3160, "dalla": 3161, "unda": 3162, "especial": 3163, "completed": 3164, "also": 3165, "point": 3166, "maintain": 3167, "observations": 3168, "lg": 3169, "gm": 3170, "requested": 3171, ".e": 3172, "sept": 3173, "code": 3174, "reat": 3175, "long": 3176, "context": 3177, "practice": 3178, "testing": 3179, "bg": 3180, "fac": 3181, "agn": 3182, "ave": 3183, "ling": 3184, "pon": 3185, "dos": 3186, "states": 3187, "lever": 3188, "goed": 3189, "giov": 3190, "comp\u00e9t": 3191, "chaft": 3192, "ifik": 3193, "uesta": 3194, "events": 3195, "keep": 3196, "thread": 3197, "hn": 3198, "zn": 3199, "'m": 3200, "dy": 3201, "adolescent": 3202, "isc": 3203, "ular": 3204, "ages": 3205, "ish": 3206, "igo": 3207, "ension": 3208, "burg": 3209, "mej": 3210, "tern": 3211, "rijk": 3212, "borg": 3213, "eines": 3214, "nuestras": 3215, "nicas": 3216, "regulation": 3217, "benefits": 3218, "kd": 3219, "ej": 3220, "actively": 3221, "{{": 3222, "vast": 3223, "dec": 3224, "tests": 3225, "jl": 3226, "bj": 3227, "socio": 3228, "ises": 3229, "hu": 3230, "deb": 3231, "kol": 3232, "aine": 3233, "\\\":": 3234, "'en": 3235, "ritt": 3236, "herr": 3237, "erste": 3238, "dieses": 3239, "gioc": 3240, "cresc": 3241, "stati": 3242, "alcuni": 3243, "greso": 3244, "encuent": 3245, "derechos": 3246, "fostering": 3247, "-w": 3248, "survey": 3249, "prevention": 3250, "free": 3251, "equipment": 3252, ".a": 3253, "wr": 3254, "err": 3255, "mentioned": 3256, "venue": 3257, "zk": 3258, "oli": 3259, "hh": 3260, "osa": 3261, "def": 3262, "rb": 3263, "bee": 3264, "tan": 3265, "ichen": 3266, "null": 3267, "toe": 3268, "bare": 3269, "zich": 3270, "\u00fct": 3271, "iao": 3272, "ukt": 3273, "tr\u00e8s": 3274, "projet": 3275, "'une": 3276, "verschiedenen": 3277, "eins": 3278, "ionale": 3279, "alguna": 3280, "herramient": 3281, "estudio": 3282, "itt": 3283, "advanced": 3284, "vw": 3285, "wellness": 3286, "vl": 3287, "tech": 3288, "talent": 3289, "just": 3290, "guid": 3291, "_report": 3292, "coordin": 3293, "hm": 3294, "united": 3295, "ming": 3296, "solicit": 3297, "zeigt": 3298, "ar\u00eda": 3299, "vc": 3300, "continuous": 3301, "music": 3302, "-person": 3303, "reason": 3304, "professionals": 3305, "solutions": 3306, "instit": 3307, "_m": 3308, "demand": 3309, "pert": 3310, "net": 3311, "oci": 3312, "disorder": 3313, "indic": 3314, "weg": 3315, "-id": 3316, "maken": 3317, "onde": 3318, "achter": 3319, "esen": 3320, "\u00e9l\u00e8ves": 3321, "rape": 3322, "tipo": 3323, "f\u00fch": 3324, "gef\u00fchrt": 3325, "curso": 3326, "\u00e9xito": 3327, "horas": 3328, "offer": 3329, "believe": 3330, "continued": 3331, "understand": 3332, "fh": 3333, "implementation": 3334, "gamer": 3335, "zx": 3336, "profile": 3337, "tasks": 3338, "rou": 3339, "experiment": 3340, ".*": 3341, "iatric": 3342, "fm": 3343, "screening": 3344, "claim": 3345, "''": 3346, "aken": 3347, "viel": 3348, "cadre": 3349, "n\u00e9cess": 3350, "kontakt": 3351, "einem": 3352, "einige": 3353, "mostr": 3354, "centro": 3355, "aremos": 3356, "icios": 3357, "pacientes": 3358, "see": 3359, "play": 3360, "fw": 3361, "mu": 3362, "wp": 3363, "vt": 3364, "experts": 3365, "\"><": 3366, "ori": 3367, "mia": 3368, "etti": 3369, "-e": 3370, "psycho": 3371, "gener": 3372, "verk": 3373, "baar": 3374, "ulaire": 3375, "anim": 3376, "'a": 3377, "pr\u00e9sent": 3378, "jeder": 3379, "vida": 3380, "dude": 3381, "gust": 3382, "respuesta": 3383, "way": 3384, "interactive": 3385, "implementing": 3386, "contribute": 3387, "thoughts": 3388, "fy": 3389, "creating": 3390, "jm": 3391, "loss": 3392, "cha": 3393, "tf": 3394, ">a": 3395, "lj": 3396, "outcome": 3397, "'av": 3398, "irma": 3399, "spr": 3400, "eing": 3401, "uge": 3402, "iste": 3403, "vita": 3404, "mio": 3405, "l\u00e4": 3406, "guten": 3407, "abile": 3408, "istencia": 3409, "ovic": 3410, "credentials": 3411, "bw": 3412, "sector": 3413, "specified": 3414, "camp": 3415, "_social": 3416, "aging": 3417, "implications": 3418, "hg": 3419, "nb": 3420, "``": 3421, "gv": 3422, "wc": 3423, "insurance": 3424, "rate": 3425, "f\u00f6r": 3426, "selbst": 3427, "aktuellen": 3428, "ogo": 3429, "documentation": 3430, "lp": 3431, "qn": 3432, "ula": 3433, "establish": 3434, "fu": 3435, "total": 3436, "vh": 3437, "xe": 3438, "transport": 3439, "pain": 3440, "_bg": 3441, "formation": 3442, "lagen": 3443, "nog": 3444, "pare": 3445, "\u00e9v": 3446, "aider": 3447, "juin": 3448, "besoin": 3449, "'es": 3450, "recomend": 3451, "forts": 3452, "profes": 3453, "minutes": 3454, "ated": 3455, "_s": 3456, "[s": 3457, "p\u00e9": 3458, "levels": 3459, "vd": 3460, "ecc": 3461, "qr": 3462, "sea": 3463, "entity": 3464, "ash": 3465, "-a": 3466, "patterns": 3467, "severity": 3468, "ifie": 3469, "iere": 3470, "ries": 3471, "cli": 3472, "itto": 3473, "s\u00e9cur": 3474, "cet": 3475, "pr\u00e9s": 3476, "\u00e9galement": 3477, "r\u00e9sultats": 3478, "rir": 3479, "nung": 3480, "altung": 3481, "itore": 3482, "interes": 3483, "auer": 3484, "times": 3485, "life": 3486, "-r": 3487, "food": 3488, "bm": 3489, "har": 3490, "uis": 3491, "\".": 3492, "facilit": 3493, "mission": 3494, "fv": 3495, "esa": 3496, "symptoms": 3497, "influ": 3498, "irk": 3499, "arse": 3500, "integ": 3501, "destin": 3502, "colleg": 3503, "/me": 3504, "erten": 3505, "fest": 3506, "recib": 3507, "profesional": 3508, "sustainable": 3509, "made": 3510, ".y": 3511, "rist": 3512, "dm": 3513, "light": 3514, "where": 3515, "informative": 3516, "pk": 3517, "sensitive": 3518, "tracking": 3519, "effectiveness": 3520, "_k": 3521, "viewport": 3522, "width": 3523, "=device": 3524, "-width": 3525, "-scale": 3526, "vk": 3527, "iam": 3528, "qb": 3529, "tre": 3530, "bra": 3531, "mind": 3532, "ical": 3533, "situations": 3534, "dh": 3535, "urance": 3536, "pol": 3537, "erson": 3538, "-z": 3539, "pir": 3540, "ogn": 3541, "hoog": 3542, "it\u00e9s": 3543, "janvier": 3544, "kann": 3545, "memb": 3546, "join": 3547, "interest": 3548, "highlighted": 3549, "there": 3550, "yan": 3551, "_username": 3552, "used": 3553, "mad": 3554, "elli": 3555, "mn": 3556, "hx": 3557, "jul": 3558, "histor": 3559, "color": 3560, "uir": 3561, ")</": 3562, "\u00b0": 3563, "pend": 3564, "arie": 3565, "stat": 3566, "issement": 3567, "abilidad": 3568, "izioni": 3569, "cita": 3570, "-solving": 3571, "critical": 3572, "vn": 3573, "occup": 3574, "clusion": 3575, "found": 3576, "risks": 3577, "jp": 3578, "oph": 3579, "fp": 3580, "mx": 3581, "nels": 3582, "anger": 3583, "-v": 3584, "expl": 3585, "usi": 3586, "mas": 3587, "memory": 3588, "atten": 3589, "ismo": 3590, "rendez": 3591, "heiten": 3592, "ihrem": 3593, "sia": 3594, "programas": 3595, "protecci\u00f3n": 3596, "gracias": 3597, "d\u00eda": 3598, "bruary": 3599, "add": 3600, "bring": 3601, "ary": 3602, "full": 3603, "addressing": 3604, "taken": 3605, "needed": 3606, "discussed": 3607, "top": 3608, "wl": 3609, "qv": 3610, "zd": 3611, "hw": 3612, "dp": 3613, "dj": 3614, "zion": 3615, "chain": 3616, "commun": 3617, "ondere": 3618, "contenu": 3619, "sue": 3620, "heraus": 3621, "bruar": 3622, "itud": 3623, "possibile": 3624, "recursos": 3625, "exploring": 3626, "materials": 3627, "administration": 3628, "maintaining": 3629, "tv": 3630, "deep": 3631, "ism": 3632, "commend": 3633, "standard": 3634, "teaching": 3635, "sports": 3636, "olar": 3637, "nz": 3638, "\"/>": 3639, "diet": 3640, "oni": 3641, "sj": 3642, "old": 3643, "lag": 3644, "isis": 3645, "dip": 3646, "esse": 3647, "vari": 3648, "materia": 3649, "princip": 3650, "\u00e9ration": 3651, "erno": 3652, "\u00e4sent": 3653, "zur\u00fcck": 3654, "sost": 3655, "escol": 3656, "relaci\u00f3n": 3657, "xi": 3658, "videos": 3659, "opportunities": 3660, "excellent": 3661, "table": 3662, "dz": 3663, "lv": 3664, "complete": 3665, "fq": 3666, "gc": 3667, "vb": 3668, "\")": 3669, "notification": 3670, "rh": 3671, "ars": 3672, "ake": 3673, "advocacy": 3674, "ille": 3675, "line": 3676, "soul": 3677, "viol": 3678, "administr": 3679, "echt": 3680, "uras": 3681, "droit": 3682, "qu\u00e9": 3683, "erhalten": 3684, "stellung": 3685, "capacit\u00e0": 3686, "todo": 3687, "ionales": 3688, "lead": 3689, "ham": 3690, "cooperation": 3691, "jh": 3692, "host": 3693, "reported": 3694, "foster": 3695, "style": 3696, "purpose": 3697, "etz": 3698, "aud": 3699, "wk": 3700, "campus": 3701, "nic": 3702, "bx": 3703, "eme": 3704, "pb": 3705, "lecture": 3706, "fel": 3707, "dest": 3708, "sat": 3709, "='": 3710, "resent": 3711, "_member": 3712, "aat": 3713, "prakt": 3714, "}}": 3715, "pad": 3716, "'am": 3717, "chac": 3718, "iera": 3719, "dokument": 3720, "ben\u00f6t": 3721, "beits": 3722, "pian": 3723, "otro": 3724, "poner": 3725, "trabaj": 3726, "processes": 3727, "demonstrated": 3728, "ick": 3729, "excited": 3730, "ella": 3731, "uck": 3732, "rom": 3733, "cx": 3734, "motion": 3735, "##": 3736, "bv": 3737, "------------------------------------------------": 3738, "pending": 3739, "ocial": 3740, "ku": 3741, "\u00f6s": 3742, "oj": 3743, "ization": 3744, ">v": 3745, "uses": 3746, "bro": 3747, "avant": 3748, "tussen": 3749, "haar": 3750, "ordin": 3751, "scr": 3752, "disposition": 3753, "'ex": 3754, "kl\u00e4r": 3755, "medidas": 3756, "estos": 3757, "estas": 3758, "supportive": 3759, "could": 3760, "initiative": 3761, "backgrounds": 3762, "rx": 3763, "dg": 3764, "fk": 3765, "_title": 3766, "hp": 3767, "shall": 3768, "-based": 3769, "bp": 3770, "nm": 3771, "sel": 3772, "debate": 3773, "energy": 3774, "tw": 3775, "water": 3776, "uate": 3777, "charge": 3778, "mechanisms": 3779, "anne": 3780, "fid": 3781, "ych": 3782, "forcer": 3783, "-com": 3784, "']": 3785, "ieux": 3786, "gaan": 3787, "chte": 3788, "mant": 3789, "venir": 3790, "rons": 3791, "afin": 3792, "servicio": 3793, "w\u00e4hrend": 3794, "petto": 3795, "attravers": 3796, "ificado": 3797, "abril": 3798, "hacia": 3799, "career": 3800, "topics": 3801, "shows": 3802, "qx": 3803, "tutoring": 3804, "visit": 3805, "years": 3806, "@example": 3807, "qs": 3808, "tm": 3809, "pod": 3810, "implic": 3811, "kunt": 3812, "verst": 3813, "deuxi\u00e8me": 3814, "ksam": 3815, "i\u00f3": 3816, "uales": 3817, "placer": 3818, "bk": 3819, "even": 3820, "practical": 3821, "focusing": 3822, "submission": 3823, "seeking": 3824, "dx": 3825, ".de": 3826, "kj": 3827, "mk": 3828, "relaxation": 3829, "nk": 3830, "jeu": 3831, "ategies": 3832, "cap": 3833, "mil": 3834, "%": 3835, "'.": 3836, "neu": 3837, "\u00f1o": 3838, "bens": 3839, "mayo": 3840, "mog": 3841, "nie": 3842, "appen": 3843, "agog": 3844, "sollten": 3845, "necessit\u00e0": 3846, "arch": 3847, "\ud83d\udcda": 3848, "lm": 3849, "xd": 3850, "mq": 3851, "ova": 3852, "detail": 3853, "___": 3854, "city": 3855, "zones": 3856, "sec": 3857, "uation": 3858, "yr": 3859, "option": 3860, "vj": 3861, "plant": 3862, "jt": 3863, "recon": 3864, "omm": 3865, "orient": 3866, "medi": 3867, "valu": 3868, "alf": 3869, "iest": 3870, "ennen": 3871, "roll": 3872, "f\u00e9": 3873, "reflex": 3874, "conna": 3875, "seront": 3876, "arriv\u00e9e": 3877, "continua": 3878, "\u2588\u2588\u2588\u2588": 3879, "osto": 3880, "deport": 3881, "demo": 3882, "brero": 3883, "sy": 3884, "atte": 3885, "measure": 3886, "literacy": 3887, "proven": 3888, "rez": 3889, "gx": 3890, "allocation": 3891, "sup": 3892, "ting": 3893, "air": 3894, "gz": 3895, "footer": 3896, "medium": 3897, "hang": 3898, "elden": 3899, "ibr": 3900, "ulture": 3901, "ueur": 3902, "trava": 3903, "evento": 3904, "falls": 3905, "aktion": 3906, "erfol": 3907, "frau": 3908, "resultados": 3909, "trav\u00e9s": 3910, "past": 3911, "platforms": 3912, "engaged": 3913, "childhood": 3914, "rev": 3915, "participate": 3916, "diversity": 3917, "every": 3918, "department": 3919, "nj": 3920, "_description": 3921, "pw": 3922, "xs": 3923, "lf": 3924, "pv": 3925, "accom": 3926, "guard": 3927, "dn": 3928, "emotions": 3929, "disease": 3930, "hospital": 3931, "isen": 3932, "cks": 3933, "elk": 3934, "bele": 3935, "ijke": 3936, "kla": 3937, "andid": 3938, "pga": 3939, "rehabilit": 3940, "plaisir": 3941, "profil": 3942, "istica": 3943, "asign": 3944, "inicio": 3945, "izada": 3946, "pd": 3947, "isa": 3948, "bh": 3949, "vx": 3950, "holistic": 3951, "internet": 3952, "registration": 3953, "nf": 3954, "completion": 3955, "target": 3956, "ized": 3957, "improving": 3958, ".st": 3959, "jos": 3960, "nur": 3961, "visual": 3962, "etto": 3963, "wg": 3964, "compl": 3965, "grand": 3966, "manage": 3967, "yt": 3968, "ron": 3969, "istance": 3970, "tener": 3971, "tar": 3972, "lle": 3973, "agg": 3974, "ften": 3975, "\u00e8re": 3976, "jets": 3977, "ifi\u00e9": 3978, "mise": 3979, "meg": 3980, "zwischen": 3981, "m\u00f6chte": 3982, "unterst\u00fctzen": 3983, "\u00e4re": 3984, "zahl": 3985, "acia": 3986, "zioni": 3987, "invaluable": 3988, "ibility": 3989, "familiar": 3990, "being": 3991, "abilities": 3992, "cross": 3993, "wf": 3994, "joint": 3995, "-time": 3996, "proc": 3997, "exercise": 3998, "qp": 3999, ".al": 4000, "requ": 4001, "hc": 4002, "instruct": 4003, "iles": 4004, "icia": 4005, "veel": 4006, "midd": 4007, "cult": 4008, "formula": 4009, "opport": 4010, ",\\\"": 4011, "iance": 4012, "neue": 4013, "iese": 4014, "rire": 4015, "icio": 4016, "objetivo": 4017, "todas": 4018, "reality": 4019, "classroom": 4020, "environmental": 4021, "methods": 4022, "rn": 4023, "ates": 4024, "'t": 4025, "march": 4026, "incerely": 4027, "ira": 4028, "promptly": 4029, "thought": 4030, "amin": 4031, "informed": 4032, "observed": 4033, "eq": 4034, "zs": 4035, "mw": 4036, "mont": 4037, "atal": 4038, "avi": 4039, "ifer": 4040, "ilo": 4041, "aden": 4042, "gran": 4043, "iza": 4044, "ices": 4045, "concentr": 4046, "conn": 4047, "reu": 4048, "cen": 4049, "v\u00e9r": 4050, "vraiment": 4051, "importantes": 4052, "volont": 4053, "m\u00f6glich": 4054, "bestimm": 4055, "nuevas": 4056, "cit": 4057, "significance": 4058, "vf": 4059, "above": 4060, "vic": 4061, "xl": 4062, "responsible": 4063, "birthday": 4064, "cript": 4065, "vin": 4066, "ran": 4067, "kc": 4068, "qc": 4069, "identifier": 4070, "ink": 4071, "mh": 4072, "dv": 4073, "ika": 4074, "tim": 4075, "ami": 4076, "<td": 4077, "determin": 4078, "usion": 4079, "const": 4080, "conv": 4081, "property": 4082, "xn": 4083, "%\"": 4084, "confl": 4085, "berg": 4086, "persone": 4087, "versch": 4088, "oline": 4089, "ollen": 4090, "abilit\u00e9": 4091, "d\u00e9f": 4092, "bibli": 4093, "\u00fcss": 4094, "mitt": 4095, "projekt": 4096, "zeich": 4097, "helfen": 4098, "klient": 4099, "tutte": 4100, "inici": 4101, "podemos": 4102, "expres": 4103, "mann": 4104, "successful": 4105, "before": 4106, "schools": 4107, "options": 4108, "approaches": 4109, "aims": 4110, "associated": 4111, "rin": 4112, "kindly": 4113, "improved": 4114, "_pro": 4115, "________": 4116, "area": 4117, "zf": 4118, "collect": 4119, "kv": 4120, "viv": 4121, "ails": 4122, "ssi": 4123, "ije": 4124, "aur": 4125, "cern": 4126, "%\",": 4127, "ller": 4128, "alis": 4129, "fasc": 4130, "osi": 4131, ">(": 4132, "kun": 4133, "(form": 4134, "sera": 4135, "d\u00e9cembre": 4136, "partes": 4137, "wissen": 4138, "\u00dfe": 4139, "weise": 4140, "fahren": 4141, "allo": 4142, "distur": 4143, "uciones": 4144, "estoy": 4145, "\u00edo": 4146, "ayuda": 4147, "estado": 4148, "ulation": 4149, "abe": 4150, "####": 4151, "ose": 4152, "tips": 4153, "consistent": 4154, "suggest": 4155, "____________": 4156, "iana": 4157, "_w": 4158, "gp": 4159, "jc": 4160, "cases": 4161, "________________": 4162, "prove": 4163, "inder": 4164, "accept": 4165, "\u00fcnd": 4166, "general": 4167, "iner": 4168, "pertinent": 4169, "<strong": 4170, "waren": 4171, "aller": 4172, "toutes": 4173, "tabl": 4174, "udes": 4175, "\u00edas": 4176, "f\u00f6": 4177, "reibung": 4178, "llevar": 4179, "diferentes": 4180, "received": 4181, "courses": 4182, "remember": 4183, "valued": 4184, "rules": 4185, "zl": 4186, "aly": 4187, "jr": 4188, "vu": 4189, "]\\": 4190, "\u00e2": 4191, "uniform": 4192, "nx": 4193, "tl": 4194, "diagnosis": 4195, "acy": 4196, "tax": 4197, "-program": 4198, "alc": 4199, "anderen": 4200, "iele": 4201, "ruz": 4202, "temp": 4203, "\u00f1": 4204, "b\u00e9n\u00e9": 4205, "strat\u00e9g": 4206, "'util": 4207, "bieten": 4208, "seine": 4209, "modulo": 4210, "problema": 4211, "comentario": 4212, "contenido": 4213, "oportun": 4214, "hip": 4215, "emphasizing": 4216, "systems": 4217, "studies": 4218, "artic": 4219, "appreciated": 4220, "recommendations": 4221, "working": 4222, "immediately": 4223, "tc": 4224, "-->": 4225, "after": 4226, "amm": 4227, "erate": 4228, "lr": 4229, "aca": 4230, "optimal": 4231, "expression": 4232, "\ufe0f": 4233, "homework": 4234, "campaign": 4235, "hf": 4236, "refer": 4237, "oth": 4238, "-be": 4239, "disorders": 4240, "prob": 4241, "ild": 4242, "anna": 4243, "eto": 4244, "cco": 4245, "_notes": 4246, "hait": 4247, "inscription": 4248, "faire": 4249, "anst": 4250, "gebung": 4251, "f\u00fchrung": 4252, "reten": 4253, "ento": 4254, "visita": 4255, "puede": 4256, "network": 4257, "clear": 4258, "matters": 4259, "dw": 4260, "discussing": 4261, "iro": 4262, "responsibilities": 4263, "din": 4264, "eda": 4265, "eu": 4266, "qa": 4267, "<!--": 4268, "onym": 4269, "specialist": 4270, "cg": 4271, "mus": 4272, "----------------": 4273, "yz": 4274, "\"s": 4275, "expect": 4276, "clients": 4277, "orge": 4278, "consumer": 4279, "uros": 4280, "ropsych": 4281, ">x": 4282, "imi": 4283, "tection": 4284, "zers": 4285, "isd": 4286, "milit": 4287, "ao\u00fbt": 4288, "f\u00e9vrier": 4289, "uerdo": 4290, "eller": 4291, "programm": 4292, "einzel": 4293, "erfolgreich": 4294, "questi": 4295, "giorn": 4296, "t\u00e9c": 4297, "dici": 4298, "fundament": 4299, "s\u00ed": 4300, "accuracy": 4301, "ila": 4302, "ush": 4303, "objective": 4304, "science": 4305, "strict": 4306, "suggestions": 4307, "government": 4308, "login": 4309, "lim": 4310, "quiet": 4311, "tz": 4312, "rz": 4313, "ible": 4314, "\u00fcn": 4315, "entions": 4316, "triggers": 4317, "intr": 4318, "$": 4319, "farm": 4320, "abet": 4321, "\u00f6ff": 4322, "enen": 4323, "()": 4324, "iglia": 4325, "mogelijk": 4326, "heb": 4327, "comme": 4328, "cr\u00e9": 4329, "ertura": 4330, "laden": 4331, "ierten": 4332, "unterschied": 4333, "hinter": 4334, "\u00fanica": 4335, "ofrec": 4336, "ividad": 4337, "solic": 4338, "jugador": 4339, "ality": 4340, "weekly": 4341, "involvement": 4342, "letter": 4343, "edi": 4344, "competition": 4345, "therapeutic": 4346, "hb": 4347, "atory": 4348, "podcast": 4349, "many": 4350, "reaching": 4351, "...\"": 4352, "signs": 4353, "hz": 4354, "oun": 4355, "mob": 4356, "pub": 4357, "qi": 4358, "abuse": 4359, "char": 4360, "cole": 4361, "aar": 4362, "plaats": 4363, "erre": 4364, "ulen": 4365, "(a": 4366, "liv": 4367, "azi": 4368, "\u00e8mes": 4369, "ients": 4370, "familia": 4371, "l\u00e9g": 4372, "bitten": 4373, "\u00e4tz": 4374, "tram": 4375, "documentos": 4376, "mane": 4377, "exploration": 4378, "world": 4379, "fun": 4380, "oul": 4381, "immediate": 4382, "rp": 4383, "sq": 4384, "increased": 4385, "score": 4386, "innovation": 4387, "identify": 4388, "year": 4389, "track": 4390, "urgent": 4391, "ext": 4392, "uct": 4393, "promotion": 4394, "roduction": 4395, "author": 4396, "ikk": 4397, "ija": 4398, "kar": 4399, "asi": 4400, "assen": 4401, "m\u00e9": 4402, "neg": 4403, "locale": 4404, "gef": 4405, "etten": 4406, "ograf": 4407, "ummer": 4408, "inh": 4409, "ucht": 4410, "essen": 4411, "issant": 4412, "begr": 4413, "razione": 4414, "rebbe": 4415, "asoci": 4416, "espacio": 4417, "ni\u00f1os": 4418, "acknowledge": 4419, "pq": 4420, "outlined": 4421, "integrity": 4422, "greatly": 4423, "dq": 4424, "speech": 4425, "panel": 4426, "excel": 4427, "uth": 4428, "ves": 4429, "iate": 4430, "hk": 4431, "marketing": 4432, "pattern": 4433, "idd": 4434, "lit": 4435, "wj": 4436, "consum": 4437, "[{": 4438, "infra": 4439, "nota": 4440, "ieg": 4441, "_t": 4442, "andel": 4443, "nale": 4444, "esch": 4445, "atic": 4446, "m\u00fc": 4447, "esor": 4448, "activit\u00e9s": 4449, "famille": 4450, "statt": 4451, "ernen": 4452, "ommen": 4453, "firma": 4454, "opini\u00f3n": 4455, "profund": 4456, "pr\u00e1": 4457, "mj": 4458, "settings": 4459, "tool": 4460, "ask": 4461, "chron": 4462, "meet": 4463, "highlighting": 4464, "delve": 4465, "added": 4466, "fair": 4467, "far": 4468, "-in": 4469, "qh": 4470, "supporting": 4471, "erb": 4472, "\u00fcl": 4473, "integral": 4474, "gw": 4475, "accordance": 4476, "rk": 4477, "weight": 4478, "jn": 4479, "company": 4480, "i\u00e8res": 4481, "verm": 4482, "chrift": 4483, "[t": 4484, "lett": 4485, "rank": 4486, "disponibles": 4487, "fait": 4488, "\u00e9rer": 4489, "quotid": 4490, "habe": 4491, "finanzi": 4492, "arsi": 4493, "esso": 4494, "scop": 4495, "sper": 4496, "cambio": 4497, "lleg": 4498, "amientos": 4499, "coordination": 4500, "ack": 4501, "coordinator": 4502, "enhanced": 4503, "heart": 4504, "ating": 4505, "gf": 4506, "adherence": 4507, "signed": 4508, "upon": 4509, "stabil": 4510, "thorough": 4511, "seek": 4512, "routine": 4513, "gos": 4514, "encer": 4515, "impression": 4516, "arten": 4517, "ichte": 4518, "sla": 4519, "riv": 4520, "wert": 4521, "tut": 4522, "llen": 4523, "ateur": 4524, "\u00f4": 4525, "droits": 4526, "ches": 4527, "tecnolog\u00eda": 4528, "grat": 4529, "m\u00e9dico": 4530, "einz": 4531, "dar\u00fcber": 4532, "d\u00fcrfen": 4533, "lauf": 4534, "ondo": 4535, "uncia": 4536, "urar": 4537, "tanto": 4538, "siguiente": 4539, "espera": 4540, "kp": 4541, "confident": 4542, "grant": 4543, "-pro": 4544, "_ag": 4545, "pn": 4546, "assurance": 4547, "implemented": 4548, "massive": 4549, "ologist": 4550, "collection": 4551, "...\\": 4552, "eds": 4553, "principal": 4554, "regulatory": 4555, "dra": 4556, "fav": 4557, ".:": 4558, "employ": 4559, "avo": 4560, "empath": 4561, "yst": 4562, "substance": 4563, "afs": 4564, "mie": 4565, "agne": 4566, "dut": 4567, "lossen": 4568, "vid\u00e9os": 4569, "joueur": 4570, "personn": 4571, "erst": 4572, "reich": 4573, "m\u00fcssen": 4574, "regelm": 4575, "tambi\u00e9n": 4576, "throughout": 4577, "-on": 4578, "global": 4579, "when": 4580, "safeguard": 4581, "icipation": 4582, "fare": 4583, "modern": 4584, ">i": 4585, "focused": 4586, "researcher": 4587, "college": 4588, "miss": 4589, "nes": 4590, "ium": 4591, "nw": 4592, "bal": 4593, "rating": 4594, "operation": 4595, "possible": 4596, "ethics": 4597, "--------------------------------": 4598, "nat": 4599, "dialog": 4600, "aba": 4601, "som": 4602, "ater": 4603, "_result": 4604, "ession": 4605, "elkaar": 4606, "werd": 4607, "=\\\"": 4608, "mehr": 4609, "clus": 4610, "succ\u00e8s": 4611, "requis": 4612, "fue": 4613, "gro\u00df": 4614, "steller": 4615, "ientes": 4616, "verso": 4617, "realizar": 4618, "est\u00e1n": 4619, "\u2b50": 4620, "conclusion": 4621, "positively": 4622, "empathy": 4623, "@email": 4624, "brought": 4625, "zc": 4626, "hereby": 4627, "rq": 4628, "game": 4629, "rw": 4630, "period": 4631, "communities": 4632, "unc": 4633, "ork": 4634, "ode": 4635, "home": 4636, "[v": 4637, "rum": 4638, "ticket": 4639, "m\u00f6": 4640, "maintenance": 4641, "_record": 4642, "ria": 4643, "relationship": 4644, "perception": 4645, "lege": 4646, "_z": 4647, "organiz": 4648, "indr": 4649, "wereld": 4650, "orden": 4651, "andere": 4652, "nau": 4653, "bene": 4654, "osc": 4655, "quelques": 4656, "septembre": 4657, "programmes": 4658, "pou": 4659, "mieux": 4660, "dall": 4661, "conseils": 4662, "ovi": 4663, "neuen": 4664, "betr": 4665, "blick": 4666, "giorno": 4667, "mondo": 4668, "benefici": 4669, "reim": 4670, "titular": 4671, "xr": 4672, "bz": 4673, ".gr": 4674, "mf": 4675, "setting": 4676, "holding": 4677, "issued": 4678, "presented": 4679, "reporting": 4680, "emphasized": 4681, "locales": 4682, "approved": 4683, "qd": 4684, "reflect": 4685, "lw": 4686, "oring": 4687, "\"$": 4688, "fee": 4689, "omas": 4690, "relationships": 4691, "managing": 4692, "tab": 4693, "had": 4694, ">y": 4695, "unteer": 4696, "module": 4697, "operations": 4698, "lk": 4699, "atif": 4700, ".\"\\": 4701, "_rating": 4702, "itor": 4703, "sim": 4704, "eding": 4705, "permit": 4706, "----": 4707, "dont": 4708, "pag": 4709, "comple": 4710, "arde": 4711, "ijken": 4712, "cop": 4713, "is\u00e9e": 4714, "fant": 4715, "pest": 4716, "valor": 4717, "jeunes": 4718, "ajust": 4719, "'aut": 4720, "hlen": 4721, "\u00e4tze": 4722, "prech": 4723, "enso": 4724, "opportunit\u00e0": 4725, "telefono": 4726, "itori": 4727, "dib": 4728, "d\u00edas": 4729, "inter\u00e9s": 4730, "iento": 4731, "conductor": 4732, "(seg": 4733, "creative": 4734, "onto": 4735, "dialogue": 4736, "ucc": 4737, "concepts": 4738, "exceptional": 4739, "approval": 4740, "encryption": 4741, "include": 4742, "protect": 4743, "contributed": 4744, "industry": 4745, "semester": 4746, "ama": 4747, "xyz": 4748, "population": 4749, "others": 4750, "liter": 4751, "pond": 4752, "jf": 4753, "blood": 4754, "ence": 4755, "madrid": 4756, "court": 4757, "ache": 4758, "'al": 4759, "basis": 4760, "nder": 4761, "iete": 4762, "relative": 4763, "is\u00e9": 4764, "vrij": 4765, "beste": 4766, "moeten": 4767, "changer": 4768, "eres": 4769, "verr": 4770, "lage": 4771, "artist": 4772, "ischer": 4773, "indre": 4774, "expr": 4775, "dern": 4776, "diff": 4777, "requer": 4778, "'utilisation": 4779, "partie": 4780, "prise": 4781, "sap": 4782, "troubles": 4783, "zus": 4784, "getti": 4785, "impe": 4786, "learn": 4787, "olution": 4788, "prompt": 4789, "iative": 4790, "groups": 4791, "opportunity": 4792, "utor": 4793, "authorities": 4794, "resource": 4795, "assigned": 4796, "photo": 4797, "another": 4798, "dynamics": 4799, "observation": 4800, "collaborate": 4801, "structor": 4802, "pseud": 4803, "alumni": 4804, "recovery": 4805, "tec": 4806, "clinical": 4807, "ahl": 4808, "lik": 4809, "gene": 4810, "lan": 4811, "ikt": 4812, "_program": 4813, "rench": 4814, "_up": 4815, "\u00f6n": 4816, "lient": 4817, "gens": 4818, "foon": 4819, "ngen": 4820, "relig": 4821, "bem": 4822, "imas": 4823, "ffen": 4824, "parc": 4825, "chez": 4826, "journ\u00e9e": 4827, "zeichnet": 4828, "verschiedene": 4829, "sempre": 4830, "alta": 4831, "realiz": 4832, "posible": 4833, "proposed": 4834, "only": 4835, "ricular": 4836, "library": 4837, "updated": 4838, "introduce": 4839, "expressed": 4840, "extra": 4841, "amed": 4842, "-making": 4843, "male": 4844, "ilt": 4845, "ras": 4846, "max": 4847, "dent": 4848, "factors": 4849, "handling": 4850, "-i": 4851, "exception": 4852, "otechn": 4853, "font": 4854, "elo": 4855, "gas": 4856, "correspond": 4857, "-con": 4858, "sed": 4859, "ieri": 4860, "irm": 4861, "energ": 4862, ".nl": 4863, "ervice": 4864, "[u": 4865, "andering": 4866, "erge": 4867, "classe": 4868, "d\u00e9t": 4869, "responsable": 4870, "centr": 4871, "verf\u00fcgbar": 4872, "frei": 4873, "breve": 4874, "retro": 4875, "pued": 4876, "pol\u00edt": 4877, "contributing": 4878, "outlines": 4879, "kf": 4880, "now": 4881, "responses": 4882, "book": 4883, "involving": 4884, "lab": 4885, "aran": 4886, "ulg": 4887, "call": 4888, "adi": 4889, ".th": 4890, "qm": 4891, "conversations": 4892, "_application": 4893, "ski": 4894, "live": 4895, "hv": 4896, ",\"": 4897, ".i": 4898, "(\"": 4899, "aya": 4900, "_com": 4901, "vit": 4902, "coverage": 4903, "anni": 4904, "_r": 4905, "tg": 4906, "usage": 4907, "jury": 4908, "estate": 4909, "itu": 4910, "uls": 4911, "ops": 4912, "cci": 4913, "abi": 4914, "bou": 4915, "front": 4916, "ederland": 4917, "spel": 4918, "lica": 4919, "telefon": 4920, "fonction": 4921, "autres": 4922, "monde": 4923, "pairs": 4924, "porto": 4925, "sociales": 4926, "tier": 4927, "asta": 4928, "\u00e4ch": 4929, "istung": 4930, "quanto": 4931, "juego": 4932, "seg\u00fan": 4933, "ciudad": 4934, "recom": 4935, "arts": 4936, "<tr": 4937, "advocate": 4938, "reduce": 4939, "overview": 4940, "once": 4941, "qe": 4942, "violation": 4943, "collective": 4944, "shaping": 4945, "particularly": 4946, "committed": 4947, "thinking": 4948, "parental": 4949, "evaluate": 4950, "represented": 4951, ".re": 4952, "mart": 4953, "source": 4954, "pz": 4955, "ead": 4956, "phys": 4957, "atives": 4958, "xz": 4959, "xp": 4960, "adel": 4961, "inda": 4962, "genetic": 4963, "ities": 4964, "none": 4965, "abd": 4966, ".es": 4967, "upp": 4968, "\u200d": 4969, "imer": 4970, "bert": 4971, "arc": 4972, "atti": 4973, "urch": 4974, "fulness": 4975, "zing": 4976, "api": 4977, "zar": 4978, "abil": 4979, "alen": 4980, "eens": 4981, "formul": 4982, "treffen": 4983, "cort": 4984, "bbe": 4985, "ried": 4986, "lick": 4987, "nouvelles": 4988, "pendant": 4989, "ifier": 4990, "quil": 4991, "uels": 4992, "ataire": 4993, "keine": 4994, "analys": 4995, "dirig": 4996, "ierte": 4997, "pronto": 4998, "avere": 4999, "espec\u00edf": 5000, "contexto": 5001, "adec": 5002, "irt": 5003, "-to": 5004, "demonstrates": 5005, "immer": 5006, "evaluations": 5007, "xo": 5008, "kal": 5009, "mare": 5010, "adhere": 5011, "feature": 5012, "pleased": 5013, "_history": 5014, "testimon": 5015, "exposure": 5016, "uu": 5017, "against": 5018, "reports": 5019, "statement": 5020, "volunteer": 5021, "constructive": 5022, "trends": 5023, "cou": 5024, "express": 5025, "efficiency": 5026, "mos": 5027, "bad": 5028, "ention": 5029, "idi": 5030, "iw": 5031, "enth": 5032, "neon": 5033, "certain": 5034, "correct": 5035, "inger": 5036, "lia": 5037, "bot": 5038, "gle": 5039, "bankruptcy": 5040, "-an": 5041, "jud": 5042, "judge": 5043, "_and": 5044, "*p": 5045, "itrust": 5046, "drone": 5047, "pressure": 5048, ")\"": 5049, "operator": 5050, "atisfaction": 5051, "etro": 5052, "noch": 5053, "pak": 5054, "ech": 5055, "affen": 5056, "clair": 5057, "ision": 5058, "ehen": 5059, "probl": 5060, "i\u00e8re": 5061, "mettre": 5062, "cela": 5063, "ignant": 5064, "produkt": 5065, "erfolgre": 5066, "chluss": 5067, "nutzen": 5068, "\u00e1s": 5069, "uden": 5070, "unit\u00e0": 5071, "ificar": 5072, "excelente": 5073, "otros": 5074, "trabajar": 5075, "ancias": 5076, "empresa": 5077, "umno": 5078, "domain": 5079, "efficient": 5080, "challenging": 5081, "creativity": 5082, "limit": 5083, "significantly": 5084, "inquiries": 5085, "securely": 5086, "urre": 5087, "ards": 5088, "noted": 5089, "john": 5090, "chan": 5091, "dai": 5092, "ava": 5093, "aram": 5094, "termination": 5095, "ior": 5096, "emon": 5097, "board": 5098, "hay": 5099, "providers": 5100, "facility": 5101, "essor": 5102, "ilitation": 5103, "lx": 5104, "chio": 5105, "fas": 5106, "_im": 5107, "cir": 5108, "enu": 5109, "_score": 5110, "_dis": 5111, "bers": 5112, "\u00e8res": 5113, "interven": 5114, "iquer": 5115, "pr\u00e9sente": 5116, "professionnel": 5117, "\u0153": 5118, "adies": 5119, "alten": 5120, "f\u00fc": 5121, "gaben": 5122, "punk": 5123, "u\u00dfer": 5124, "zeug": 5125, "resil": 5126, "nueva": 5127, "er\u00eda": 5128, "encontrar": 5129, "personas": 5130, "fascinating": 5131, "effort": 5132, "showed": 5133, "nature": 5134, ",</": 5135, "investigation": 5136, "reading": 5137, "without": 5138, "sense": 5139, "center": 5140, "introduction": 5141, "-life": 5142, "exc": 5143, "entered": 5144, "site": 5145, "afety": 5146, "attributes": 5147, "offering": 5148, "lz": 5149, "quis": 5150, "l\u00e9": 5151, "ination": 5152, "equity": 5153, "lem": 5154, "ereg": 5155, "cj": 5156, "portal": 5157, "ams": 5158, "_given": 5159, "hq": 5160, "midt": 5161, "street": 5162, "phase": 5163, "connection": 5164, "coaching": 5165, "surveillance": 5166, "eel": 5167, "upport": 5168, "conserv": 5169, "iero": 5170, "pts": 5171, "vements": 5172, "athlete": 5173, "therapies": 5174, "dif": 5175, "ature": 5176, "-y": 5177, "uren": 5178, "eam": 5179, "_management": 5180, "artikel": 5181, "izen": 5182, "confront": 5183, "ieur": 5184, "implication": 5185, "obten": 5186, "r\u00e9pond": 5187, "disposit": 5188, "entsprech": 5189, "realt\u00e0": 5190, "inse": 5191, "suoi": 5192, "isi\u00f3n": 5193, "lider": 5194, "proyectos": 5195, "\u00f3nico": 5196, "llev": 5197, "sociedad": 5198, "enfermed": 5199, "necesita": 5200, "casos": 5201, "making": 5202, "roy": 5203, "]</": 5204, "cw": 5205, "oking": 5206, "therapist": 5207, "oui": 5208, "roles": 5209, "introdu": 5210, "istic": 5211, "yg": 5212, "mode": 5213, "permission": 5214, "signing": 5215, "lc": 5216, "outreach": 5217, "izing": 5218, "pic": 5219, "ics": 5220, "ultural": 5221, "deadline": 5222, "healthier": 5223, "communications": 5224, "hel": 5225, "encour": 5226, "entr": 5227, "clinic": 5228, "ging": 5229, "cedures": 5230, "uler": 5231, "dental": 5232, "jer": 5233, "chang": 5234, "instant": 5235, "fill": 5236, "lands": 5237, "lib": 5238, "-esteem": 5239, ">r": 5240, "gal": 5241, "uali": 5242, "dro": 5243, "lien": 5244, "inde": 5245, "zent": 5246, "onden": 5247, "\u00e1l": 5248, "[n": 5249, "altern": 5250, "gue": 5251, "pr\u00e9sence": 5252, "unten": 5253, "desc": 5254, "actividad": 5255, "aplicaci\u00f3n": 5256, ".co": 5257, "lict": 5258, "peers": 5259, "wu": 5260, "zp": 5261, "benefit": 5262, "months": 5263, "joining": 5264, "stab": 5265, "clarification": 5266, "navigate": 5267, "align": 5268, "sx": 5269, "ote": 5270, "lace": 5271, "urther": 5272, "=\"/": 5273, "ivity": 5274, "primary": 5275, "-re": 5276, "telephone": 5277, "revision": 5278, "aro": 5279, "-st": 5280, "_results": 5281, "entry": 5282, "teams": 5283, "iu": 5284, "brief": 5285, "ema": 5286, "fat": 5287, "\u00e9g": 5288, "rier": 5289, "uff": 5290, ".le": 5291, "aul": 5292, "csr": 5293, "addiction": 5294, "_imp": 5295, ".\\\"": 5296, "_pass": 5297, "urt": 5298, "_p": 5299, "satisf": 5300, "lingen": 5301, "mij": 5302, "gep": 5303, "feld": 5304, "peri": 5305, "orie": 5306, "estruct": 5307, "fase": 5308, "recl": 5309, "remar": 5310, "sous": 5311, "nouveau": 5312, "d\u00e9but": 5313, "avoir": 5314, "_di": 5315, "incor": 5316, "lado": 5317, "iciente": 5318, "utilizar": 5319, "aplic": 5320, "lugar": 5321, "contrato": 5322, "facilitate": 5323, "across": 5324, "landscape": 5325, "those": 5326, "appropriate": 5327, "ning": 5328, "capt": 5329, "assess": 5330, "]*": 5331, "agrees": 5332, "excellence": 5333, "train": 5334, "concept": 5335, "category": 5336, "header": 5337, "obe": 5338, "cause": 5339, "pj": 5340, "accurate": 5341, "green": 5342, "slot": 5343, "certifications": 5344, "ending": 5345, "youth": 5346, "mark": 5347, "plaint": 5348, "official": 5349, "dispute": 5350, "zes": 5351, "_ident": 5352, "ait": 5353, "stance": 5354, "rod": 5355, "orth": 5356, "ree": 5357, "atis": 5358, "jar": 5359, "respond": 5360, "_session": 5361, "\u00fcns": 5362, "onen": 5363, "beeld": 5364, "fact": 5365, "ansen": 5366, "ieten": 5367, "biod": 5368, "ancement": 5369, "coop": 5370, "fts": 5371, "ziehung": 5372, "diesen": 5373, "geht": 5374, "ivit\u00e0": 5375, "possono": 5376, "libro": 5377, "realmente": 5378, "onta": 5379, "legisl": 5380, "contar": 5381, "electr": 5382, "coleg": 5383, "comenz": 5384, "developments": 5385, "yi": 5386, "hard": 5387, "cellent": 5388, "lot": 5389, "listed": 5390, "prioritize": 5391, "forth": 5392, "proceed": 5393, "fig": 5394, "transparency": 5395, "mor": 5396, "agreed": 5397, "_re": 5398, "\"f": 5399, "increase": 5400, "reb": 5401, "mah": 5402, "false": 5403, "congen": 5404, "medicine": 5405, "-o": 5406, "applic": 5407, "ray": 5408, "trib": 5409, "alk": 5410, "oria": 5411, "anning": 5412, "unn": 5413, "postal": 5414, "ieu": 5415, "syst": 5416, "ationale": 5417, "ifice": 5418, "goede": 5419, "onn": 5420, "financier": 5421, "icon": 5422, "narr": 5423, "bonne": 5424, "nouvelle": 5425, "pours": 5426, "cherche": 5427, "quant": 5428, "'e": 5429, "l\u00e0": 5430, "d\u00e9p": 5431, "tempor": 5432, "edad": 5433, "deine": 5434, "dabei": 5435, "igte": 5436, "sust": 5437, "fors": 5438, "trat": 5439, "onas": 5440, "vedere": 5441, "utar": 5442, "organizaci\u00f3n": 5443, "algunos": 5444, "creo": 5445, "adem\u00e1s": 5446, "disfr": 5447, "entarios": 5448, "pueda": 5449, "pueden": 5450, "meetings": 5451, "wenn": 5452, "inspection": 5453, "provides": 5454, "sensory": 5455, "esh": 5456, "faced": 5457, "incidents": 5458, "highly": 5459, "considering": 5460, "alex": 5461, "advised": 5462, "drive": 5463, "advice": 5464, "criteria": 5465, "evening": 5466, "guide": 5467, "right": 5468, "examination": 5469, "framework": 5470, "standing": 5471, "rat": 5472, "ghi": 5473, "oa": 5474, "urban": 5475, "mentoring": 5476, "\"c": 5477, "ines": 5478, "alm": 5479, "nav": 5480, "igation": 5481, "verified": 5482, "uda": 5483, "nik": 5484, "formed": 5485, "yu": 5486, "olf": 5487, "iling": 5488, "argument": 5489, "essa": 5490, "rio": 5491, "(d": 5492, "\ud83e\udde0": 5493, ")>": 5494, "bear": 5495, "diagn": 5496, "fotos": 5497, "owner": 5498, "itate": 5499, "rett": 5500, "bent": 5501, "gele": 5502, "{},": 5503, "bef": 5504, "iges": 5505, "urgence": 5506, "explorer": 5507, "doivent": 5508, "d\u00e9c": 5509, "personnes": 5510, "absol": 5511, "osta": 5512, "h\u00f6": 5513, "edor": 5514, "migli": 5515, "pien": 5516, "buen": 5517, "ieron": 5518, "eventos": 5519, "arias": 5520, "ienda": 5521, "escri": 5522, "attached": 5523, "queries": 5524, "\"title": 5525, "scope": 5526, "job": 5527, "teamwork": 5528, "ilib": 5529, "xm": 5530, "rep": 5531, "ory": 5532, "habits": 5533, ">this": 5534, "yx": 5535, "office": 5536, "designed": 5537, "aq": 5538, "sha": 5539, "_in": 5540, ".el": 5541, "xa": 5542, "-care": 5543, "motivation": 5544, "gj": 5545, "stitution": 5546, "naz": 5547, "diabetes": 5548, "gui": 5549, "having": 5550, "employees": 5551, "ily": 5552, "aps": 5553, "articles": 5554, "_int": 5555, "etic": 5556, "ognitive": 5557, "eps": 5558, "aber": 5559, ">\"": 5560, "opt": 5561, "_contact": 5562, "%</": 5563, "pace": 5564, "-pl": 5565, "etta": 5566, "four": 5567, "virtue": 5568, "staat": 5569, "facil": 5570, "aces": 5571, "krij": 5572, "(t": 5573, "sant": 5574, "gend": 5575, "recuper": 5576, "uvre": 5577, "premi\u00e8re": 5578, "num\u00e9rique": 5579, "lieu": 5580, "rement": 5581, "asti": 5582, "bindung": 5583, "beim": 5584, "pers\u00f6nlich": 5585, "p\u00e4": 5586, "agine": 5587, "nuova": 5588, "\u00edt": 5589, "adjust": 5590, "assignments": 5591, "put": 5592, "incorporating": 5593, "bor": 5594, "committee": 5595, "ancy": 5596, "power": 5597, "path": 5598, "berger": 5599, "oste": 5600, "face": 5601, "than": 5602, "fellow": 5603, "intelligence": 5604, "hey": 5605, ".se": 5606, "\ud83c\udf93": 5607, "complexities": 5608, "\ud83d\udcdd": 5609, "proper": 5610, "adolescents": 5611, "coordinate": 5612, "vaccination": 5613, "drug": 5614, "inding": 5615, "rese": 5616, "hum": 5617, "audits": 5618, "evidence": 5619, "arta": 5620, "solid": 5621, "assure": 5622, "jeta": 5623, "kin": 5624, "pective": 5625, "ptoms": 5626, "iveness": 5627, "accur": 5628, "instruction": 5629, "nood": 5630, "conven": 5631, "angen": 5632, "occupation": 5633, "jong": 5634, "\u00eble": 5635, "mee": 5636, "curs": 5637, "praak": 5638, "loi": 5639, "doit": 5640, "n\u00e9cessaire": 5641, "enci": 5642, "\u00e9nom": 5643, "sowie": 5644, "natur": 5645, "jed": 5646, "fr\u00fch": 5647, "wirklich": 5648, "meiner": 5649, "solo": 5650, "cron": 5651, "crear": 5652, "eros": 5653, "problemas": 5654, "mundo": 5655, "enfrent": 5656, "poder": 5657, "p\u00fablica": 5658, "encontr": 5659, "\\<": 5660, "necesario": 5661, "pr\u00f3xima": 5662, "derecho": 5663, "morning": 5664, "scientific": 5665, "utilize": 5666, "utilizing": 5667, "educators": 5668, "initiated": 5669, "rule": 5670, "breach": 5671, "_records": 5672, "teachers": 5673, "raised": 5674, "bil": 5675, "yk": 5676, "-term": 5677, "avior": 5678, "*[": 5679, "ison": 5680, "days": 5681, "apes": 5682, "successfully": 5683, "encrypted": 5684, "feelings": 5685, "_prof": 5686, "payment": 5687, "relation": 5688, "short": 5689, "mol": 5690, "eli": 5691, "transfer": 5692, "dietary": 5693, "jet": 5694, "surrounding": 5695, "olation": 5696, "enda": 5697, "conflicts": 5698, "aga": 5699, "eks": 5700, "cour": 5701, "adr": 5702, "armac": 5703, "\"w": 5704, "?>": 5705, "hei": 5706, "azo": 5707, "vat": 5708, "etail": 5709, "uppen": 5710, "\u00ec": 5711, "_goals": 5712, "\u00f4t": 5713, "glob": 5714, "t\u00e9": 5715, "directives": 5716, "otions": 5717, "cente": 5718, "i\u00e8me": 5719, "syst\u00e8me": 5720, "asz": 5721, "redu": 5722, "welt": 5723, "spiel": 5724, "ganz": 5725, "halb": 5726, "\u00e1m": 5727, "cambi": 5728, "icina": 5729, "camino": 5730, "mayor": 5731, "llam": 5732, "respecto": 5733, "ready": 5734, "certificate": 5735, "responsibility": 5736, "range": 5737, "reson": 5738, "-em": 5739, "ful": 5740, "she": 5741, "joined": 5742, "episode": 5743, "proactive": 5744, "suggested": 5745, "depth": 5746, "strategic": 5747, "raj": 5748, "placeholder": 5749, "main": 5750, "known": 5751, "original": 5752, "build": 5753, "weeks": 5754, "female": 5755, "limited": 5756, "conference": 5757, "society": 5758, "religious": 5759, "fil": 5760, "precision": 5761, "reduction": 5762, "oles": 5763, "-related": 5764, "rence": 5765, "partners": 5766, "iez": 5767, "vet": 5768, "underlying": 5769, "ius": 5770, ".q": 5771, "answer": 5772, "illi": 5773, "veteran": 5774, "otta": 5775, "](": 5776, "blo": 5777, "-aware": 5778, "bib": 5779, "cribed": 5780, "_driver": 5781, "fund": 5782, "tribution": 5783, "_by": 5784, "otor": 5785, "_health": 5786, "ystem": 5787, "maar": 5788, "moder": 5789, "autom": 5790, "serie": 5791, "arme": 5792, "eig": 5793, "dossier": 5794, "trouve": 5795, "\u00ee": 5796, "uelles": 5797, "bian": 5798, "ologue": 5799, "ombre": 5800, "rices": 5801, "uset": 5802, "arf": 5803, "lie\u00dflich": 5804, "deren": 5805, "sele": 5806, "liches": 5807, "cooper": 5808, "proprio": 5809, "`,": 5810, "gett": 5811, "utiliz": 5812, "adicion": 5813, "afect": 5814, "capacidad": 5815, "realm": 5816, "inspiring": 5817, "thrilled": 5818, "-ch": 5819, "dive": 5820, "ery": 5821, "fon": 5822, "usa": 5823, "carefully": 5824, "comply": 5825, "shop": 5826, ".ab": 5827, "officer": 5828, "file": 5829, "families": 5830, "eed": 5831, "follows": 5832, "scholarship": 5833, "region": 5834, "interested": 5835, "distribution": 5836, "accessibility": 5837, "manager": 5838, "leading": 5839, "chem": 5840, "what": 5841, "\ud83d\udd39": 5842, "chronic": 5843, "nez": 5844, "proceedings": 5845, "icipant": 5846, "effects": 5847, "lis": 5848, "_activity": 5849, "oral": 5850, "anth": 5851, "eline": 5852, "meal": 5853, "hem": 5854, "outh": 5855, "pector": 5856, "construction": 5857, "disability": 5858, "azz": 5859, "\u00e4l": 5860, "psychiatric": 5861, "healing": 5862, "anten": 5863, "ibe": 5864, "struct": 5865, "fantast": 5866, "g\u00fc": 5867, "bia": 5868, "ums": 5869, "stri": 5870, "izia": 5871, "orts": 5872, "guar": 5873, "agt": 5874, "gek": 5875, "arna": 5876, "vide": 5877, "excell": 5878, "emand": 5879, "kening": 5880, "lingu": 5881, "conforme": 5882, "icom": 5883, "compliment": 5884, "eced": 5885, "iaux": 5886, "sop": 5887, "porter": 5888, "ivement": 5889, "g\u00e9n": 5890, "euch": 5891, "wick": 5892, "erm\u00f6g": 5893, "jeden": 5894, "deal": 5895, "trov": 5896, "presenta": 5897, "pr\u00e1ctica": 5898, "olicitud": 5899, "pr\u00f3": 5900, "acept": 5901, "iedad": 5902, "j\u00f3venes": 5903, "\u00falt": 5904, "applications": 5905, "technologies": 5906, "includes": 5907, "around": 5908, "guest": 5909, "counselor": 5910, ".ra": 5911, "principles": 5912, "encouraged": 5913, "instructor": 5914, "lh": 5915, "evident": 5916, "satisfaction": 5917, "shown": 5918, "eating": 5919, "decisions": 5920, "mediation": 5921, "imon": 5922, "*,": 5923, "tal": 5924, "balance": 5925, "priority": 5926, "dates": 5927, "stag": 5928, "reviewed": 5929, "mak": 5930, "udy": 5931, "och": 5932, "finance": 5933, "ford": 5934, "prepared": 5935, "representative": 5936, "ptom": 5937, "negative": 5938, "tion": 5939, "pal": 5940, "otti": 5941, "lee": 5942, "waste": 5943, "covery": 5944, "uma": 5945, "ires": 5946, "allenges": 5947, "timing": 5948, "cro": 5949, "bank": 5950, "iew": 5951, "unds": 5952, ")\",": 5953, "mers": 5954, "gren": 5955, "adora": 5956, "wend": 5957, "pri": 5958, "daar": 5959, "emd": 5960, "zier": 5961, "intens": 5962, "oons": 5963, "burger": 5964, "chap": 5965, "iani": 5966, "aura": 5967, "angs": 5968, "lex": 5969, "\u00eates": 5970, "profit": 5971, "beaucoup": 5972, "appropri": 5973, "i\u00e8rement": 5974, "atrice": 5975, "entreprise": 5976, "esp\u00e8re": 5977, "wart": 5978, "\u2588\u2588\u2588\u2588\u2588": 5979, "\u2588\u2588": 5980, "d\u00e9cision": 5981, "kurs": 5982, "uchen": 5983, "uppe": 5984, "itet": 5985, "gabe": 5986, "\u00e4nder": 5987, "mentre": 5988, "incontro": 5989, "atorio": 5990, "nuovo": 5991, "cono": 5992, "uestas": 5993, "em\u00e1s": 5994, "hasta": 5995, "referencia": 5996, "alumnos": 5997, "exhaust": 5998, "\u00f3mo": 5999, "debe": 6000, "sure": 6001, "avoid": 6002, "aining": 6003, "abc": 6004, "erta": 6005, "newsletter": 6006, "aged": 6007, "(id": 6008, "smith": 6009, "egt": 6010, "expenses": 6011, "rop": 6012, "olved": 6013, "meaningful": 6014, "perfect": 6015, "convenience": 6016, "emb": 6017, "itation": 6018, "metrics": 6019, "transportation": 6020, "requires": 6021, "amt": 6022, "uring": 6023, "verify": 6024, "nan": 6025, "claims": 6026, "inar": 6027, "emi": 6028, "fab": 6029, "tom": 6030, "\"></": 6031, "_prop": 6032, "onc": 6033, "allerg": 6034, "ervation": 6035, "geld": 6036, "spo": 6037, "anto": 6038, "tere": 6039, "elp": 6040, "mensen": 6041, "cke": 6042, "prem": 6043, "urb": 6044, "exist": 6045, "tip": 6046, "divert": 6047, "contrat": 6048, "modific": 6049, "enant": 6050, "ebenfalls": 6051, "bleiben": 6052, "setzen": 6053, "etzt": 6054, "secondo": 6055, "oteca": 6056, "isce": 6057, "ubic": 6058, "uesto": 6059, "dentro": 6060, "irse": 6061, "acion": 6062, "puntos": 6063, "suger": 6064, "minutos": 6065, "qued": 6066, "agenda": 6067, "dynamic": 6068, "environments": 6069, "driving": 6070, "strength": 6071, "boundaries": 6072, "amil": 6073, "structured": 6074, "ely": 6075, "advocating": 6076, "-ins": 6077, "designated": 6078, "ified": 6079, "advancements": 6080, "enhancement": 6081, "read": 6082, "preferences": 6083, "exhibited": 6084, "vibrant": 6085, "cq": 6086, "conducting": 6087, "brings": 6088, "targeted": 6089, "authorized": 6090, "mobile": 6091, "reference": 6092, "bilingual": 6093, "authorization": 6094, "(s": 6095, "cel": 6096, "analyze": 6097, "witness": 6098, "considerations": 6099, "onda": 6100, "_policy": 6101, "/m": 6102, "transcript": 6103, "soon": 6104, "ullah": 6105, "lique": 6106, "export": 6107, "-weight": 6108, "bern": 6109, "stip": 6110, "governance": 6111, "vas": 6112, "ugen": 6113, "dual": 6114, "psy": 6115, "osal": 6116, "-app": 6117, "ohn": 6118, "edd": 6119, "_usage": 6120, "(**": 6121, "ban": 6122, "duct": 6123, "oen": 6124, "dek": 6125, "olut": 6126, "zte": 6127, "itos": 6128, "rond": 6129, "-mails": 6130, "instr": 6131, "icc": 6132, "uteur": 6133, "sans": 6134, "cum": 6135, "partir": 6136, "appr\u00e9ci": 6137, "int\u00e9": 6138, "utiliser": 6139, "peut": 6140, "'autres": 6141, "offre": 6142, "entic": 6143, "ificaciones": 6144, "deux": 6145, "\u2588": 6146, "produ": 6147, "primer": 6148, "_oc": 6149, "\u00e4ng": 6150, "k\u00f6n": 6151, "dich": 6152, "bietet": 6153, "dalle": 6154, "unic": 6155, "casi": 6156, "isti": 6157, "l\u00ed": 6158, "venida": 6159, "juegos": 6160, "bajo": 6161, "situaci\u00f3n": 6162, "tel\u00e9fono": 6163, "propiedad": 6164, "uebas": 6165, "offers": 6166, "classes": 6167, "mutual": 6168, "unauthorized": 6169, "consequences": 6170, "channels": 6171, "features": 6172, "organizational": 6173, "intellectual": 6174, "established": 6175, "_document": 6176, "cybersecurity": 6177, "cast": 6178, "organizations": 6179, "\u00ea": 6180, "infrastructure": 6181, "posed": 6182, "rar": 6183, "improvements": 6184, "anch": 6185, "natural": 6186, "expense": 6187, "mate": 6188, "yh": 6189, "behaviors": 6190, "detection": 6191, "dosage": 6192, "eri": 6193, "imit": 6194, "bat": 6195, "autism": 6196, "ect": 6197, "sciences": 6198, "aste": 6199, "release": 6200, "interpersonal": 6201, "veillance": 6202, "tard": 6203, "enis": 6204, "ctor": 6205, "adm": 6206, "\"user": 6207, "_pre": 6208, "rut": 6209, "_response": 6210, "_obs": 6211, "-x": 6212, "controle": 6213, "dynam": 6214, "zij": 6215, "iders": 6216, "amsterdam": 6217, "komen": 6218, "eldig": 6219, "particul": 6220, "nieu": 6221, "arden": 6222, "verte": 6223, "tie": 6224, "_out": 6225, "edo": 6226, "inen": 6227, "autre": 6228, "int\u00e9ress": 6229, "discipl": 6230, "ziel": 6231, "r\u00e8": 6232, "diff\u00e9rents": 6233, "ser\u00e1": 6234, "naissance": 6235, "\u00e9tape": 6236, "compt": 6237, "ture": 6238, "ir\u00e1": 6239, "conj": 6240, "ersten": 6241, "lesen": 6242, "lichkeit": 6243, "zeigen": 6244, "hoch": 6245, "st\u00fct": 6246, "axis": 6247, "epis": 6248, "\"*": 6249, "empo": 6250, "fiss": 6251, "ambi": 6252, "fondo": 6253, "completo": 6254, "dov": 6255, "moda": 6256, ";/": 6257, "\u00faltimo": 6258, "izados": 6259, "estud": 6260, "cambios": 6261, "confirmation": 6262, "timely": 6263, "enlight": 6264, "exciting": 6265, "firstname": 6266, "which": 6267, "very": 6268, "narrative": 6269, "skill": 6270, "enrollment": 6271, "inhal": 6272, "lact": 6273, "auth": 6274, "touch": 6275, "photos": 6276, "objectives": 6277, "supervision": 6278, "fitness": 6279, "campaigns": 6280, "invite": 6281, "\"type": 6282, "eo": 6283, "emption": 6284, "mand": 6285, "appointments": 6286, "journal": 6287, "riel": 6288, "outlining": 6289, "'ll": 6290, "centre": 6291, "aven": 6292, "lifestyle": 6293, "anced": 6294, "icha": 6295, "specialized": 6296, "\ud83d\udcc5": 6297, "factor": 6298, "defect": 6299, "bold": 6300, "justice": 6301, "asm": 6302, "icial": 6303, "rog": 6304, "tenant": 6305, "(r": 6306, "opin": 6307, ")**": 6308, "illa": 6309, "stit": 6310, "pec": 6311, "odi": 6312, "anter": 6313, "lob": 6314, "[name": 6315, "jeux": 6316, "occ": 6317, "vier": 6318, "adres": 6319, "prec": 6320, "sympt": 6321, "alleg": 6322, "nbsp": 6323, "ambit": 6324, "resp": 6325, "qualification": 6326, "esto": 6327, "istr": 6328, "cem": 6329, "issent": 6330, "uellement": 6331, "odes": 6332, "licence": 6333, "\u00e8te": 6334, "d\u00e9tail": 6335, "contre": 6336, "'aff": 6337, "compil": 6338, "raft": 6339, "uktur": 6340, "f\u00f6rder": 6341, "aktual": 6342, "/f": 6343, "ancora": 6344, "ncia": 6345, "sog": 6346, "preco": 6347, "causa": 6348, "internacional": 6349, "quiero": 6350, "largo": 6351, "usch": 6352, "bab": 6353, "leveraging": 6354, "empower": 6355, "sustainability": 6356, "university": 6357, "circumstances": 6358, "average": 6359, "wait": 6360, "participating": 6361, "deeper": 6362, "willingness": 6363, "uya": 6364, "pop": 6365, "ays": 6366, "g\u00e9": 6367, "asures": 6368, "fea": 6369, "held": 6370, "remain": 6371, "violations": 6372, "riculum": 6373, "seminar": 6374, "launch": 6375, "aimed": 6376, "displayed": 6377, "strive": 6378, "deg": 6379, "reminder": 6380, "conservation": 6381, "opinions": 6382, "funding": 6383, "delivery": 6384, "showing": 6385, "alternative": 6386, "submitted": 6387, "run": 6388, "kle": 6389, "core": 6390, "onom": 6391, "ccc": 6392, "affected": 6393, "moderator": 6394, "lip": 6395, "pay": 6396, "olen": 6397, "influence": 6398, "renc": 6399, "wor": 6400, "fed": 6401, "liability": 6402, "bus": 6403, "toda": 6404, "zou": 6405, "^": 6406, "json": 6407, "ood": 6408, "zept": 6409, "\"<?": 6410, "kor": 6411, "_data": 6412, "yd": 6413, "ergy": 6414, "anos": 6415, "_steps": 6416, "verv": 6417, "ningen": 6418, "enge": 6419, "utch": 6420, "vak": 6421, "ocht": 6422, "gegen": 6423, "conclus": 6424, "fix": 6425, "bero": 6426, "defin": 6427, "quel": 6428, "gr\u00e2ce": 6429, "cie": 6430, "pris": 6431, "s\u00fbr": 6432, "\u00f1os": 6433, "recher": 6434, "politique": 6435, "d\u00e8s": 6436, "sse": 6437, "nouveaux": 6438, "diff\u00e9rentes": 6439, "\u00e4d": 6440, "deck": 6441, "sollte": 6442, "germany": 6443, "n\u00e4chsten": 6444, "itung": 6445, "bevor": 6446, "ultur": 6447, "verwendet": 6448, "\u00fcrger": 6449, "sod": 6450, "sito": 6451, "atura": 6452, "pu\u00f2": 6453, "unta": 6454, "condiciones": 6455, "adoras": 6456, "papel": 6457, "\u00e1tica": 6458, "izando": 6459, "puedo": 6460, "impres": 6461, "enco": 6462, "connections": 6463, "iving": 6464, "closely": 6465, "achieve": 6466, "navigating": 6467, "bac": 6468, "accessible": 6469, "mandatory": 6470, "esteemed": 6471, "_comments": 6472, "supply": 6473, "allergies": 6474, "regularly": 6475, "hall": 6476, "registered": 6477, "afa": 6478, "identifying": 6479, "month": 6480, "asset": 6481, "afternoon": 6482, "expected": 6483, "recorded": 6484, "mid": 6485, "-depth": 6486, "ago": 6487, "analyses": 6488, "proficiency": 6489, "reed": 6490, ".sh": 6491, "omb": 6492, "concentration": 6493, "starttime": 6494, "ician": 6495, "juven": 6496, "tha": 6497, "chir": 6498, "fines": 6499, "blockchain": 6500, "transparent": 6501, "ongo": 6502, "alo": 6503, "nad": 6504, "rob": 6505, "renewable": 6506, "carbon": 6507, "cial": 6508, "_taken": 6509, "-commerce": 6510, "judicial": 6511, "enas": 6512, "ifen": 6513, "orda": 6514, "umar": 6515, "nil": 6516, "prod": 6517, "brain": 6518, "[in": 6519, "ardo": 6520, "jam": 6521, "iation": 6522, "xiety": 6523, "unik": 6524, "iant": 6525, "rece": 6526, "oir": 6527, "urd": 6528, "modation": 6529, "reaction": 6530, "anden": 6531, "dermat": 6532, "<span": 6533, "ports": 6534, "_label": 6535, "uce": 6536, "dial": 6537, "aal": 6538, "hog": 6539, "periment": 6540, "ivre": 6541, "quir": 6542, "vog": 6543, "superv": 6544, "_group": 6545, "ugi": 6546, "-str": 6547, "\";": 6548, "r\u00e0": 6549, "u\u00e9": 6550, "r\u00e9uss": 6551, "itudes": 6552, "ayant": 6553, "rodu": 6554, "(de": 6555, "oblig": 6556, "exce": 6557, "tti": 6558, "uchs": 6559, "voll": 6560, "damit": 6561, "besonders": 6562, "oben": 6563, "dies": 6564, "immedi": 6565, "sare": 6566, "tutto": 6567, "lico": 6568, "diversas": 6569, "recibir": 6570, "alcan": 6571, "entren": 6572, "estar\u00e1": 6573, "nicos": 6574, "smooth": 6575, "highlights": 6576, "historical": 6577, "climate": 6578, "tuned": 6579, "numbers": 6580, "'ve": 6581, "reader": 6582, ".bar": 6583, "jac": 6584, "back": 6585, "presence": 6586, "highest": 6587, "most": 6588, "professionalism": 6589, "announce": 6590, "transition": 6591, "bir": 6592, "pel": 6593, "minor": 6594, "receive": 6595, "ned": 6596, "mood": 6597, "gather": 6598, "took": 6599, "serves": 6600, "interesting": 6601, "efd": 6602, "showcasing": 6603, "\u00f2": 6604, "achie": 6605, "stage": 6606, "cos": 6607, "dad": 6608, "relief": 6609, "ponse": 6610, "anan": 6611, "}]": 6612, "\u00f6l": 6613, "disaster": 6614, "nit": 6615, "ritional": 6616, "apeutic": 6617, "aso": 6618, "consultations": 6619, "force": 6620, "pall": 6621, "_location": 6622, "lor": 6623, "scenario": 6624, "worker": 6625, "leader": 6626, "business": 6627, "gan": 6628, "aku": 6629, "modification": 6630, "lies": 6631, "iane": 6632, "hot": 6633, "--------": 6634, ".o": 6635, "chl": 6636, "}\\": 6637, "distress": 6638, "ocument": 6639, "send": 6640, "lig": 6641, "irc": 6642, "temporal": 6643, "...</": 6644, "vez": 6645, "_\\": 6646, "propos": 6647, "ourage": 6648, "cription": 6649, "rite": 6650, "\u00e4n": 6651, "schw": 6652, "coord": 6653, "utations": 6654, "doen": 6655, "moet": 6656, "vinden": 6657, "chied": 6658, "ders": 6659, "altijd": 6660, "licit": 6661, "inaire": 6662, "leven": 6663, "isme": 6664, "intellect": 6665, "ipl": 6666, "laut": 6667, "gemacht": 6668, "azio": 6669, ">.": 6670, "sensor": 6671, "pseudo": 6672, "rejo": 6673, "m\u00e9th": 6674, "pratique": 6675, "titre": 6676, "cong": 6677, "visite": 6678, "velop": 6679, "asion": 6680, "ampl": 6681, "ecn": 6682, "dann": 6683, "steht": 6684, "ispiel": 6685, "leitung": 6686, "ellschaft": 6687, "differ": 6688, "\u00eds": 6689, "illumin": 6690, "colle": 6691, "sint": 6692, "dare": 6693, "dopo": 6694, "desarroll": 6695, "acional": 6696, "mientras": 6697, "\u00e1tico": 6698, "cido": 6699, "ecer": 6700, "dise\u00f1": 6701, "c\u00f3digo": 6702, "emple": 6703, "technical": 6704, "propose": 6705, "young": 6706, "_skills": 6707, "kat": 6708, "facing": 6709, "late": 6710, "clubs": 6711, "seamless": 6712, "leaders": 6713, "ception": 6714, "temporary": 6715, "website": 6716, "accounts": 6717, "robust": 6718, "jon": 6719, "offered": 6720, "iri": 6721, "revolution": 6722, "gratitude": 6723, "bec": 6724, "acceptance": 6725, "mun": 6726, "\ud83c\udfae": 6727, "exempl": 6728, "know": 6729, "atures": 6730, "etailed": 6731, "udo": 6732, "varied": 6733, "iaz": 6734, "_signature": 6735, "hearing": 6736, "intake": 6737, "motor": 6738, "elm": 6739, "rik": 6740, "[j": 6741, "anonymous": 6742, "cors": 6743, "_summary": 6744, "mater": 6745, "newborn": 6746, "forensic": 6747, "aling": 6748, "ips": 6749, "preservation": 6750, "uil": 6751, "includ": 6752, ";\">": 6753, "sei": 6754, "www": 6755, "athan": 6756, "spa": 6757, "_to": 6758, "imest": 6759, "ewe": 6760, "elig": 6761, "lass": 6762, "band": 6763, "erved": 6764, "_ex": 6765, "_sub": 6766, "jeg": 6767, "kur": 6768, "detect": 6769, "telecom": 6770, "ill\u00e9": 6771, "bracht": 6772, "hoop": 6773, "isto": 6774, "ipa": 6775, "preg": 6776, "numer": 6777, "leta": 6778, ";&": 6779, "venture": 6780, "textarea": 6781, "notable": 6782, "strat\u00e9gie": 6783, "vou": 6784, "atement": 6785, "propre": 6786, "inement": 6787, "retour": 6788, "prit": 6789, "r\u00e9f\u00e9rence": 6790, "peuvent": 6791, "acement": 6792, "consid": 6793, "lumi\u00e8re": 6794, "ipe": 6795, "istique": 6796, "entend": 6797, "_soc": 6798, "_term": 6799, "erw": 6800, "ammen": 6801, "inkl": 6802, "l\u00e4ss": 6803, "[[": 6804, "fatto": 6805, "societ\u00e0": 6806, "viso": 6807, "verifica": 6808, "distint": 6809, "ultimo": 6810, "t\u00e9r": 6811, "engan": 6812, "h\u00e1": 6813, "\u00faltima": 6814, "paso": 6815, "p\u00fab": 6816, "volunt": 6817, "taking": 6818, "protected": 6819, "angep": 6820, "consideration": 6821, "elines": 6822, "left": 6823, "urn": 6824, "notify": 6825, "deadlines": 6826, "-cultural": 6827, "institutions": 6828, "aja": 6829, "uster": 6830, "reflection": 6831, "chats": 6832, "postcode": 6833, "')": 6834, "structure": 6835, "incre": 6836, "usu": 6837, "along": 6838, "analytics": 6839, "idea": 6840, "pla": 6841, "according": 6842, "moments": 6843, "scenarios": 6844, "_hours": 6845, "http": 6846, "balanced": 6847, "caf": 6848, "cae": 6849, "luc": 6850, "referral": 6851, "values": 6852, "ddd": 6853, "maternal": 6854, "efe": 6855, "wan": 6856, "\ud83d\udc64": 6857, "elabor": 6858, "missing": 6859, "patent": 6860, "orde": 6861, "stro": 6862, "asylum": 6863, "duction": 6864, "=[": 6865, "ends": 6866, "alto": 6867, "ingu": 6868, "----------": 6869, "\"g": 6870, "cin": 6871, "bron": 6872, "ious": 6873, "isease": 6874, "dess": 6875, "_inc": 6876, "antage": 6877, "essional": 6878, "gia": 6879, "intro": 6880, "ermen": 6881, "ovo": 6882, "potent": 6883, "tegen": 6884, "gaat": 6885, "ussen": 6886, "niveau": 6887, "eigen": 6888, "seks": 6889, "ikel": 6890, "lanc": 6891, "ichtig": 6892, "enta": 6893, "stan": 6894, "apr\u00e8s": 6895, "t\u00e9l\u00e9phone": 6896, "s\u00e9rie": 6897, "donn": 6898, "\u00e9ducation": 6899, "capacit": 6900, "'em": 6901, "tend": 6902, "contra": 6903, "oter": 6904, "apellido": 6905, "\u00e4nd": 6906, "wendung": 6907, "machen": 6908, "sofort": 6909, "sch\u00f6n": 6910, "\u00e4nger": 6911, "uye": 6912, "italiano": 6913, "izza": 6914, "olver": 6915, "estrat\u00e9g": 6916, "uido": 6917, "\u00e1reas": 6918, "nuevo": 6919, "chool": 6920, "seeing": 6921, "-date": 6922, "production": 6923, "beb": 6924, "achievements": 6925, "iga": 6926, "stakeholders": 6927, "pte": 6928, "threads": 6929, "inton": 6930, "accessing": 6931, "eye": 6932, "click": 6933, "modifications": 6934, "jas": 6935, "acher": 6936, "fruitful": 6937, "developing": 6938, "own": 6939, "yourself": 6940, "partnership": 6941, "addresses": 6942, "workplace": 6943, "networking": 6944, "reform": 6945, "-of": 6946, "server": 6947, "infectious": 6948, ".tr": 6949, "threat": 6950, "elect": 6951, "_service": 6952, "trials": 6953, "preventive": 6954, "dys": 6955, "ark": 6956, "apps": 6957, ".ro": 6958, "lad": 6959, "emat": 6960, "rais": 6961, "recipro": 6962, "transactions": 6963, "gam": 6964, "iko": 6965, "frameworks": 6966, "iman": 6967, "iciary": 6968, "etype": 6969, "trade": 6970, "bbb": 6971, "istas": 6972, "wind": 6973, "neuro": 6974, "_notice": 6975, "igu": 6976, "\"\\": 6977, "tic": 6978, "ugg": 6979, "_progress": 6980, "------": 6981, "mitted": 6982, "-----------": 6983, "cure": 6984, "eft": 6985, "dbc": 6986, "aments": 6987, "fans": 6988, "ordinator": 6989, "prov": 6990, ">.</": 6991, "ovation": 6992, "dee": 6993, "groot": 6994, "roe": 6995, "vra": 6996, "jaar": 6997, "enties": 6998, "illo": 6999, "radi": 7000, "nef": 7001, "\\\">": 7002, "uela": 7003, "eso": 7004, "\u00e4che": 7005, "dolor": 7006, "licken": 7007, "cr\u00e9er": 7008, "envoy": 7009, "\u00e2te": 7010, "litt": 7011, "exact": 7012, ")s": 7013, "\u00e9rie": 7014, "vrier": 7015, "><![": 7016, "cerc": 7017, "itere": 7018, "reiben": 7019, "deutschen": 7020, ".-": 7021, "render": 7022, "pari": 7023, "aprender": 7024, "descripcion": 7025, "f\u00edsica": 7026, "deben": 7027, "registrado": 7028, "dese": 7029, "\u00f3d": 7030, "resolver": 7031, "cargo": 7032, "diferencia": 7033, "anterior": 7034, "perfil": 7035, "<div": 7036, "qualities": 7037, "emphasis": 7038, "cia": 7039, "phil": 7040, "gain": 7041, "atar": 7042, "shift": 7043, "welfare": 7044, ".bo": 7045, "rete": 7046, "manner": 7047, "gamers": 7048, "strengths": 7049, "sth": 7050, "obligations": 7051, "amer": 7052, "'re": 7053, "experienced": 7054, "ermann": 7055, "accountability": 7056, "eting": 7057, "omi": 7058, "consultant": 7059, "('": 7060, "empowerment": 7061, "raise": 7062, "fang": 7063, "retention": 7064, "lesson": 7065, "commented": 7066, "fashion": 7067, "meditation": 7068, "difference": 7069, "presentation": 7070, "assistant": 7071, "market": 7072, "referred": 7073, "prescribed": 7074, "flu": 7075, "lore": 7076, "anton": 7077, "-------": 7078, "sensitivity": 7079, "his": 7080, "anta": 7081, "efa": 7082, "_code": 7083, "iov": 7084, "igator": 7085, "feb": 7086, "sond": 7087, ".he": 7088, "military": 7089, "\\(": 7090, "personality": 7091, "substances": 7092, "dou": 7093, "ventions": 7094, "nce": 7095, "reste": 7096, "aben": 7097, "_allocated": 7098, "soci": 7099, "geg": 7100, "geen": 7101, "proble": 7102, "milieu": 7103, "tent": 7104, "ocrin": 7105, "aceut": 7106, "acci": 7107, "ancer": 7108, "exclus": 7109, "pression": 7110, "tour": 7111, "utto": 7112, "_duration": 7113, "'id": 7114, "constr": 7115, "usement": 7116, "sensible": 7117, "]]></": 7118, "fert": 7119, "\u00fcb": 7120, "plorer": 7121, "perce": 7122, "clim": 7123, "regelm\u00e4\u00dfig": 7124, "tr\u00e4": 7125, "berlin": 7126, "jede": 7127, "anmeld": 7128, "giochi": 7129, "storia": 7130, "valore": 7131, "altro": 7132, "cultura": 7133, "senza": 7134, "tenga": 7135, "licos": 7136, "corre": 7137, "donde": 7138, "preocup": 7139, "algunas": 7140, "realizado": 7141, "\u00edstica": 7142, "capacity": 7143, "comes": 7144, "breaches": 7145, "insight": 7146, "coming": 7147, "addition": 7148, "always": 7149, "experiencing": 7150, ">[": 7151, "educator": 7152, "break": 7153, "cec": 7154, "cover": 7155, "aman": 7156, "-ups": 7157, "-friendly": 7158, "done": 7159, "advisor": 7160, "readiness": 7161, "colleagues": 7162, "presents": 7163, "say": 7164, "solution": 7165, "element": 7166, "zek": 7167, "logs": 7168, "win": 7169, "wed": 7170, "ourn": 7171, "recruitment": 7172, "_training": 7173, "_ne": 7174, "choices": 7175, "checklist": 7176, "\"}}": 7177, "-equiv": 7178, "-compatible": 7179, "=edge": 7180, "jes": 7181, "mary": 7182, "lud": 7183, "multiple": 7184, "sab": 7185, "exit": 7186, "otechnology": 7187, "ites": 7188, "medications": 7189, "admin": 7190, "oro": 7191, "<th": 7192, "ods": 7193, "analyst": 7194, "fj": 7195, "lar": 7196, "cam": 7197, "cee": 7198, "obesity": 7199, "yw": 7200, "instrument": 7201, "dda": 7202, "dup": 7203, "isions": 7204, "authority": 7205, "circ": 7206, "aviation": 7207, "ume": 7208, "opath": 7209, "atient": 7210, "spectrum": 7211, "bah": 7212, ".del": 7213, "______": 7214, "elter": 7215, "paren": 7216, "ject": 7217, "psychiat": 7218, "hij": 7219, ".x": 7220, ".\"},": 7221, "ition": 7222, "_te": 7223, "ael": 7224, "hebt": 7225, "angst": 7226, "_evaluation": 7227, "atische": 7228, "uez": 7229, "elles": 7230, "agr": 7231, "/d": 7232, "-le": 7233, "rones": 7234, "uve": 7235, ")\":": 7236, "iqu\u00e9": 7237, "durable": 7238, "pouvez": 7239, "jusqu": 7240, "vais": 7241, "formulaire": 7242, "meilleure": 7243, "o\u00f9": 7244, "\u00eat": 7245, "erne": 7246, "perd": 7247, "obtener": 7248, "suic": 7249, "einf": 7250, "komm": 7251, "ystems": 7252, "gibt": 7253, "bildung": 7254, "bereits": 7255, "platz": 7256, "erle": 7257, "lie\u00df": 7258, "ercise": 7259, "resto": 7260, "possibilit\u00e0": 7261, "porta": 7262, "osci": 7263, "espresso": 7264, "completa": 7265, "di\u00e1logo": 7266, "pr\u00f3ximo": 7267, "uridad": 7268, "diversos": 7269, "tercer": 7270, "cciones": 7271, "g\u00e9nero": 7272, "registros": 7273, "utilizando": 7274, "edici\u00f3n": 7275, "\u00f3st": 7276, "\u00e9fono": 7277, "fully": 7278, "want": 7279, "developed": 7280, "utmost": 7281, "nar": 7282, "remarkable": 7283, "ued": 7284, "until": 7285, "bul": 7286, "storage": 7287, "created": 7288, "commit": 7289, "orpor": 7290, "lively": 7291, "unders": 7292, "alcohol": 7293, "written": 7294, "still": 7295, "plays": 7296, "eea": 7297, "ccd": 7298, "mediate": 7299, ".ge": 7300, "_completed": 7301, "technique": 7302, "discrimination": 7303, "unity": 7304, "traffic": 7305, "asses": 7306, "function": 7307, "fern": 7308, "living": 7309, "treatments": 7310, "_app": 7311, "device": 7312, "inz": 7313, "uphold": 7314, "atics": 7315, "cell": 7316, "immun": 7317, "\ud83d\udc69": 7318, "********": 7319, "lsx": 7320, "ddf": 7321, "eman": 7322, "mitigation": 7323, "animals": 7324, "ket": 7325, "treaty": 7326, "pose": 7327, "ename": 7328, "adin": 7329, "_for": 7330, "toxic": 7331, "pek": 7332, "-focused": 7333, "therapists": 7334, "oub": 7335, "afc": 7336, "astic": 7337, "oven": 7338, "-comp": 7339, "lez": 7340, "haus": 7341, "illes": 7342, "desk": 7343, "ville": 7344, "height": 7345, "filing": 7346, "vac": 7347, "_factors": 7348, "nim": 7349, "-card": 7350, "verge": 7351, "agi": 7352, "idue": 7353, "alg": 7354, "pie": 7355, "olg": 7356, "civ": 7357, "?\",": 7358, "oca": 7359, "_part": 7360, "_text": 7361, "_ps": 7362, "}},": 7363, "_guid": 7364, "\u00e4cht": 7365, "a\u00f1": 7366, "(),": 7367, "legt": 7368, "depuis": 7369, "'\u00eatre": 7370, "ponses": 7371, "\u00e9tique": 7372, "tr\u00e9": 7373, "capacit\u00e9": 7374, "physique": 7375, "mais": 7376, "coles": 7377, "igne": 7378, "sp\u00e9cial": 7379, "repr\u00e9sent": 7380, "caus": 7381, "auss": 7382, "toc": 7383, "persu": 7384, "zeitig": 7385, "weit": 7386, "-chat": 7387, "\u00dfer": 7388, "issenschaft": 7389, "erh": 7390, "wieder": 7391, "unft": 7392, "isches": 7393, "klar": 7394, "entlich": 7395, "ensa": 7396, "offen": 7397, "\u00e4ren": 7398, "meldung": 7399, "veterin": 7400, "sob": 7401, ";\"": 7402, "agna": 7403, "primo": 7404, "iare": 7405, "metod": 7406, "segue": 7407, "verificar": 7408, "ulares": 7409, "varios": 7410, "mucho": 7411, "muestra": 7412, "plata": 7413, "ol\u00f3gica": 7414, ">\\<": 7415, "accordingly": 7416, "productive": 7417, "embark": 7418, "difficulties": 7419, "abroad": 7420, "abel": 7421, "apt": 7422, "ees": 7423, "lives": 7424, "story": 7425, "([": 7426, "fresh": 7427, "/g": 7428, "verbal": 7429, "rib": 7430, "submissions": 7431, "elements": 7432, "sir": 7433, "accommodation": 7434, "wanted": 7435, "exemption": 7436, "cyber": 7437, "moderate": 7438, "apply": 7439, "two": 7440, "respective": 7441, "cutting": 7442, "screenings": 7443, "trip": 7444, "renewal": 7445, "demonstrating": 7446, "seminars": 7447, "collected": 7448, "administrative": 7449, "explanation": 7450, "respectful": 7451, "facilities": 7452, "cards": 7453, "granted": 7454, "games": 7455, "reviewing": 7456, "eno": 7457, "diligence": 7458, "emergencies": 7459, "ear": 7460, "ierre": 7461, "emails": 7462, "listening": 7463, "oga": 7464, "umn": 7465, "started": 7466, "arez": 7467, "shedding": 7468, "nor": 7469, "elic": 7470, "adjustments": 7471, "-dis": 7472, "aster": 7473, "sample": 7474, "kir": 7475, "ffb": 7476, "arian": 7477, "skin": 7478, "respir": 7479, "observer": 7480, "adopt": 7481, "similar": 7482, "confidence": 7483, "authentication": 7484, "resolving": 7485, "familial": 7486, "inte": 7487, "neutral": 7488, ".ar": 7489, "ittel": 7490, "viron": 7491, "_action": 7492, "temperature": 7493, "hes": 7494, "depression": 7495, "depart": 7496, "datetime": 7497, "ussions": 7498, "asan": 7499, "visitor": 7500, "suicide": 7501, "ulo": 7502, "acces": 7503, "iber": 7504, "zos": 7505, "(b": 7506, "interpret": 7507, "publication": 7508, "elige": 7509, "\"[": 7510, "funct": 7511, "\u00eate": 7512, "afd": 7513, "distrib": 7514, "discrimin": 7515, "asa": 7516, "pliant": 7517, "adress": 7518, "chter": 7519, "adt": 7520, "nive": 7521, "rup": 7522, "capital": 7523, "iedo": 7524, "\u00eetre": 7525, "_co": 7526, "_sessions": 7527, "achen": 7528, "'>": 7529, "vote": 7530, "pr\u00eat": 7531, "lectron": 7532, "'il": 7533, "ifique": 7534, "m\u00eame": 7535, "probl\u00e8me": 7536, "erais": 7537, "retr": 7538, "heures": 7539, "certains": 7540, "contr\u00f4le": 7541, "donner": 7542, "\u2500\u2500\u2500\u2500\u2500\u2500\u2500\u2500": 7543, "tox": 7544, "uada": 7545, "muss": 7546, "_pattern": 7547, "ausge": 7548, "irtschaft": 7549, "besser": 7550, "kr\u00e4fte": 7551, "chnitt": 7552, "utsch": 7553, "\u00fchrung": 7554, "verwenden": 7555, "erfahren": 7556, "jetzt": 7557, "auen": 7558, "unterst\u00fctzt": 7559, "\u00e4ft": 7560, "ffic": 7561, "#{": 7562, "stesso": 7563, "panor": 7564, "migliori": 7565, "clic": 7566, "propriet\u00e0": 7567, "acionales": 7568, "detalle": 7569, "\u00e1ticas": 7570, "compa\u00f1": 7571, "semana": 7572, "continuar": 7573, "ci\u00f3n": 7574, "ingres": 7575, "dem\u00e1s": 7576, "admission": 7577, "connected": 7578, "covered": 7579, "much": 7580, "citizenship": 7581, ".mar": 7582, "rus": 7583, "struggles": 7584, "isha": 7585, "down": 7586, "lying": 7587, "iversity": 7588, "encounter": 7589, "inquiry": 7590, "introduced": 7591, "rooms": 7592, "series": 7593, "sor": 7594, "prescription": 7595, "enriched": 7596, "\u00ebl": 7597, "integrating": 7598, "reetings": 7599, "debates": 7600, "-edge": 7601, "uyen": 7602, "involve": 7603, "encouraging": 7604, "especially": 7605, "-building": 7606, "outline": 7607, "commence": 7608, "ball": 7609, "instrumental": 7610, "literature": 7611, "divide": 7612, "rey": 7613, "messages": 7614, "mult": 7615, "quiz": 7616, "roduce": 7617, "acies": 7618, "assets": 7619, "handle": 7620, "_cert": 7621, "ishing": 7622, "mez": 7623, "files": 7624, "acb": 7625, "_____": 7626, "dfd": 7627, "helping": 7628, "languages": 7629, "-int": 7630, "ivan": 7631, "opp": 7632, "ouch": 7633, "turn": 7634, "eco": 7635, "ived": 7636, "cea": 7637, "kam": 7638, "transform": 7639, "ify": 7640, "absolutely": 7641, "multid": 7642, "detected": 7643, "hear": 7644, "ube": 7645, "association": 7646, "[{\"": 7647, "diagnostic": 7648, "ited": 7649, "_documents": 7650, "accine": 7651, "reliability": 7652, "bio": 7653, "defects": 7654, "acf": 7655, "hit": 7656, "dot": 7657, "-and": 7658, "nuances": 7659, "trial": 7660, "dia": 7661, "institute": 7662, "kap": 7663, "ffect": 7664, "ows": 7665, "ilia": 7666, "products": 7667, "*\"": 7668, "icer": 7669, "exhibits": 7670, "nun": 7671, "existential": 7672, "idence": 7673, "bak": 7674, "-tr": 7675, "grief": 7676, "sala": 7677, "_preference": 7678, "yb": 7679, "bbc": 7680, ":<": 7681, "station": 7682, "\"data": 7683, "ords": 7684, "ervices": 7685, "_individual": 7686, "ival": 7687, "_rights": 7688, "crypt": 7689, "_check": 7690, "vigil": 7691, "\u00e8ne": 7692, "\u00f3l": 7693, "enqu": 7694, "-pr": 7695, "reso": 7696, "orz": 7697, "/s": 7698, "arto": 7699, "vre": 7700, "manufacturer": 7701, "insol": 7702, "anonym": 7703, "'\"": 7704, "ogene": 7705, "rapide": 7706, "igner": 7707, "volution": 7708, "d\u00e9l": 7709, "former": 7710, "itant": 7711, "d\u00e9velopp": 7712, "t\u00e9l\u00e9": 7713, "sons": 7714, "soci\u00e9t\u00e9": 7715, "idor": 7716, "esses": 7717, "'email": 7718, "terr": 7719, "gleich": 7720, "pr\u00fcf": 7721, "liebe": 7722, "ekte": 7723, "surname": 7724, "annunci": 7725, "frat": 7726, "assic": 7727, "dolore": 7728, "zona": 7729, "pol\u00edtica": 7730, "clases": 7731, "r\u00eda": 7732, "v\u00eddeo": 7733, "producto": 7734, "\u00e9tica": 7735, "ejercicio": 7736, "especific": 7737, "militar": 7738, "owski": 7739, "mentors": 7740, "intersection": 7741, "seen": 7742, "root": 7743, "wellbeing": 7744, "additionally": 7745, "\u00e9l\u00e9": 7746, "moving": 7747, "think": 7748, "profiles": 7749, "adher": 7750, "players": 7751, "anj": 7752, "advancing": 7753, "delighted": 7754, "kop": 7755, "stories": 7756, "ulia": 7757, "-ass": 7758, "remaining": 7759, "consistently": 7760, "linked": 7761, "ensures": 7762, "preparation": 7763, "testament": 7764, "-world": 7765, "streamline": 7766, "oms": 7767, "bringing": 7768, "example": 7769, "\u2728": 7770, "harassment": 7771, "athy": 7772, "positions": 7773, "understood": 7774, "neider": 7775, "aaa": 7776, "optimize": 7777, "alert": 7778, "calm": 7779, "-----": 7780, "expectations": 7781, "cef": 7782, "afe": 7783, "comfort": 7784, "disclosure": 7785, "earliest": 7786, "onz": 7787, "eca": 7788, "ahn": 7789, "proved": 7790, "kov": 7791, "cab": 7792, "dba": 7793, "aph": 7794, "reducing": 7795, ".u": 7796, "internal": 7797, "civil": 7798, "cbc": 7799, "appl": 7800, "indigenous": 7801, ".fr": 7802, "oto": 7803, "sil": 7804, "[c": 7805, "\u00e8le": 7806, "severe": 7807, "maritime": 7808, "flo": 7809, "traumatic": 7810, "cept": 7811, "\"k": 7812, "rot": 7813, "psychologist": 7814, "intent": 7815, "orphic": 7816, "compuls": 7817, "adjustment": 7818, "rigor": 7819, "adc": 7820, "eras": 7821, "onne": 7822, "resa": 7823, "!'": 7824, "regulator": 7825, "_submission": 7826, "economic": 7827, "_allocation": 7828, "r\u00e1": 7829, "_o": 7830, "-ver": 7831, "dub": 7832, "esi": 7833, "gev": 7834, "nip": 7835, "rift": 7836, "enorm": 7837, "comb": 7838, "dig": 7839, "mening": 7840, "huis": 7841, "bung": 7842, "kosten": 7843, "bind": 7844, "amic": 7845, "restaur": 7846, "imal": 7847, "standen": 7848, "(z": 7849, "fois": 7850, "sinc": 7851, "rue": 7852, "maintenant": 7853, "forte": 7854, "c\u00eda": 7855, "aussi": 7856, "r\u00f4le": 7857, "lui": 7858, "puis": 7859, "avent": 7860, "rale": 7861, "meinen": 7862, "ahren": 7863, "isiert": 7864, "letzten": 7865, "findet": 7866, "ktion": 7867, "besten": 7868, "finde": 7869, "${": 7870, "neo": 7871, "nomin": 7872, "periodo": 7873, "casa": 7874, "dieta": 7875, "letto": 7876, "erca": 7877, "_source": 7878, "a\u00f1o": 7879, "\u00edtica": 7880, "revel": 7881, "tomar": 7882, "hijos": 7883, "claro": 7884, "podr": 7885, "uestion": 7886, "quien": 7887, "mismo": 7888, "rado": 7889, "departamento": 7890, "tienen": 7891, "pa\u00eds": 7892, "cual": 7893, "evitar": 7894, "infr": 7895, "prepare": 7896, "ulatory": 7897, "keeping": 7898, "sets": 7899, "atisf": 7900, "confirmed": 7901, "jen": 7902, "highlight": 7903, "shed": 7904, "administrator": 7905, "night": 7906, "arb": 7907, "checks": 7908, "nutritional": 7909, "nurturing": 7910, "efficiently": 7911, "initiate": 7912, "storytelling": 7913, "failure": 7914, "counsel": 7915, "representation": 7916, "jean": 7917, "supplement": 7918, "unding": 7919, "keen": 7920, "url": 7921, "starting": 7922, "included": 7923, "adf": 7924, "audience": 7925, "competitions": 7926, "performances": 7927, "productivity": 7928, "mz": 7929, "inclusion": 7930, "auditor": 7931, "communicate": 7932, "advance": 7933, "readers": 7934, "ural": 7935, "intric": 7936, "ceb": 7937, "validity": 7938, "dataset": 7939, "roc": 7940, "oman": 7941, "umni": 7942, "posts": 7943, "educate": 7944, "oversee": 7945, "zzo": 7946, "bullying": 7947, "anyone": 7948, "avan": 7949, "achieving": 7950, "explo": 7951, "hill": 7952, "behalf": 7953, "adaptive": 7954, "ever": 7955, ".br": 7956, "ijo": 7957, "word": 7958, "mov": 7959, "erator": 7960, "azard": 7961, "thy": 7962, "otion": 7963, "ency": 7964, "pier": 7965, "too": 7966, "show": 7967, "rea": 7968, "exper": 7969, "udent": 7970, "iny": 7971, "aming": 7972, "transaction": 7973, "licants": 7974, "assert": 7975, "governing": 7976, "inta": 7977, "descr": 7978, "aka": 7979, "stein": 7980, "affirm": 7981, "_protocol": 7982, "ffc": 7983, "aze": 7984, "aking": 7985, "<footer": 7986, "cca": 7987, "\\'": 7988, "pes": 7989, "\u201c": 7990, "_sec": 7991, "tri": 7992, "_em": 7993, "prime": 7994, "forcement": 7995, "elin": 7996, "surve": 7997, "urse": 7998, "honest": 7999, "beck": 8000, "anticip": 8001, "zip": 8002, "voter": 8003, ".\",\"": 8004, "rust": 8005, "iper": 8006, "emaakt": 8007, "acer": 8008, "agements": 8009, "riend": 8010, "offic": 8011, "ethod": 8012, "kers": 8013, "heel": 8014, "igg": 8015, "competit": 8016, "conflic": 8017, "alleen": 8018, "iot": 8019, "capac": 8020, "plement": 8021, "veter": 8022, "_per": 8023, "esk": 8024, "vacc": 8025, "adolescente": 8026, "quier": 8027, "cul": 8028, "emm": 8029, "-community": 8030, "stell": 8031, "stub": 8032, "ensitive": 8033, "*\\": 8034, "_test": 8035, "param": 8036, "userid": 8037, ".it": 8038, "exerc": 8039, "uell": 8040, "exion": 8041, "ajout": 8042, "cents": 8043, "gles": 8044, "parer": 8045, "'\u00e0": 8046, "iciel": 8047, "ujet": 8048, "selon": 8049, "atoire": 8050, "vot": 8051, "bekannt": 8052, "\u00e9coute": 8053, "distingu": 8054, "dign": 8055, "_trait": 8056, "utes": 8057, "libre": 8058, "//": 8059, "surg": 8060, "domic": 8061, "w\u00fcr": 8062, ",...": 8063, "definit": 8064, "leben": 8065, "#:": 8066, "propri": 8067, "registrazione": 8068, "denomin": 8069, "hacer": 8070, "orc": 8071, "reconoc": 8072, "uestra": 8073, "aprove": 8074, "ol\u00f3g": 8075, "saber": 8076, "relaciones": 8077, "]],": 8078, "\\_": 8079, "elev": 8080, "attitude": 8081, "screen": 8082, "exchanges": 8083, "strengthen": 8084, "ols": 8085, "impacted": 8086, "rates": 8087, "least": 8088, "endeavors": 8089, "thoughtful": 8090, "demonstrate": 8091, "umi": 8092, "discourse": 8093, "dea": 8094, "spirit": 8095, "@g": 8096, "kre": 8097, "dorm": 8098, "previous": 8099, "compensation": 8100, "piece": 8101, "networks": 8102, "clarity": 8103, "\u00f6z": 8104, "monthly": 8105, "ones": 8106, "establishing": 8107, "_terms": 8108, "coach": 8109, "authorize": 8110, "admirable": 8111, "perform": 8112, "nas": 8113, "abide": 8114, "styles": 8115, "forms": 8116, "researchers": 8117, "invitation": 8118, "friend": 8119, "credits": 8120, "sender": 8121, "signal": 8122, "routines": 8123, "andra": 8124, ":\",": 8125, "imen": 8126, "orientation": 8127, "aki": 8128, "modules": 8129, "vehicle": 8130, "automated": 8131, "iah": 8132, "'d": 8133, "ross": 8134, "agreements": 8135, "jab": 8136, "()]": 8137, "..": 8138, "normal": 8139, "compassion": 8140, "employment": 8141, "angu": 8142, "affecting": 8143, "til": 8144, "aks": 8145, "equality": 8146, "uga": 8147, "mina": 8148, "fundraising": 8149, "licenses": 8150, "rant": 8151, "attended": 8152, "caa": 8153, "logistics": 8154, "analytical": 8155, "remarks": 8156, "cus": 8157, "star": 8158, "withdrawal": 8159, "traumat": 8160, "oin": 8161, "older": 8162, "cad": 8163, "itle": 8164, "fem": 8165, "iler": 8166, "eva": 8167, "asting": 8168, "_topics": 8169, "\u00e9r\u00e9": 8170, "stable": 8171, "-al": 8172, "tol": 8173, "intel": 8174, "oid": 8175, "acted": 8176, "transc": 8177, "ools": 8178, "atu": 8179, "deer": 8180, "pecial": 8181, "_ad": 8182, "issing": 8183, "gast": 8184, "orb": 8185, "egg": 8186, "agnost": 8187, "\u2022": 8188, "_num": 8189, "aines": 8190, "-for": 8191, "okus": 8192, "stars": 8193, "coli": 8194, "cla": 8195, "ienne": 8196, "cob": 8197, "tron": 8198, "h\u00f6r": 8199, "ceux": 8200, "itable": 8201, "ouis": 8202, "\u00e9crit": 8203, "brill": 8204, "nant": 8205, "valide": 8206, "oueur": 8207, "meille": 8208, "parler": 8209, "unes": 8210, "annon": 8211, "\u00e9l\u00e9ments": 8212, "'an": 8213, "lier": 8214, "cabinet": 8215, "isses": 8216, "irthday": 8217, "atur": 8218, "parl": 8219, "gute": 8220, "kurz": 8221, "f\u00e4lle": 8222, "werde": 8223, "komple": 8224, "spielen": 8225, "mittel": 8226, "welche": 8227, "viele": 8228, "deut": 8229, "bean": 8230, "izzer": 8231, "ucha": 8232, "_change": 8233, "obra": 8234, "gate": 8235, "roma": 8236, "incontr": 8237, "mostra": 8238, "delic": 8239, "comun": 8240, "oval": 8241, "\u00e1t": 8242, "unci": 8243, "_ut": 8244, "padre": 8245, "mite": 8246, "rade": 8247, "aquel": 8248, "m\u00e1ximo": 8249, "acompa\u00f1": 8250, "espa\u00f1": 8251, "nivel": 8252, "t\u00edtulo": 8253, "_usuario": 8254, "revise": 8255, "iciones": 8256, "clientes": 8257, "learners": 8258, "equitable": 8259, "kept": 8260, "organizing": 8261, "embrace": 8262, "emphasize": 8263, "continues": 8264, "])": 8265, "discipline": 8266, "subjects": 8267, "allocated": 8268, "really": 8269, "tone": 8270, "traditional": 8271, "failed": 8272, "cater": 8273, "departure": 8274, "currently": 8275, "love": 8276, "creation": 8277, "laus": 8278, "xxx": 8279, "interests": 8280, "organized": 8281, "empowering": 8282, "uzz": 8283, "organize": 8284, "atio": 8285, "fter": 8286, "trainer": 8287, "ists": 8288, "_behavior": 8289, "editorial": 8290, "distance": 8291, "transmission": 8292, "volunteers": 8293, "ordering": 8294, "stream": 8295, "harmon": 8296, "channel": 8297, "fire": 8298, "hus": 8299, "_ap": 8300, "breathing": 8301, "bedtime": 8302, "compass": 8303, "easy": 8304, "stu": 8305, "passports": 8306, "investigations": 8307, "enforcement": 8308, "select": 8309, "hom": 8310, "cker": 8311, "serve": 8312, "aware": 8313, "pin": 8314, "kos": 8315, "perso": 8316, "view": 8317, "monitored": 8318, "oma": 8319, "stigma": 8320, "affect": 8321, "gathered": 8322, "choosing": 8323, "litigation": 8324, "reached": 8325, "xic": 8326, "\u2013": 8327, "anse": 8328, "inars": 8329, "amar": 8330, "ock": 8331, "mond": 8332, "\\\"\"": 8333, "diseases": 8334, "raf": 8335, "k\u00fc": 8336, "advise": 8337, "zed": 8338, "futures": 8339, "ffa": 8340, "disputes": 8341, "arguments": 8342, "industrial": 8343, "annah": 8344, "restrictions": 8345, "ral": 8346, "american": 8347, "-source": 8348, "lection": 8349, "hou": 8350, "requirement": 8351, "sale": 8352, "veterans": 8353, "ajo": 8354, "recall": 8355, "ases": 8356, "cip": 8357, "-ref": 8358, "-reg": 8359, "hour": 8360, "wei": 8361, "crises": 8362, "stimuli": 8363, "gard": 8364, "refl": 8365, "zan": 8366, "omp": 8367, "ference": 8368, "ict": 8369, "progression": 8370, "index": 8371, "paris": 8372, "irs": 8373, "esco": 8374, "ads": 8375, "percentage": 8376, "ardi": 8377, "./": 8378, "ebb": 8379, "_team": 8380, "urgical": 8381, "hemat": 8382, "lou": 8383, "fect": 8384, "nea": 8385, "iffs": 8386, "(p": 8387, "corpor": 8388, "god": 8389, "_arr": 8390, "-tra": 8391, "ographics": 8392, "asto": 8393, "fdc": 8394, "orst": 8395, "assing": 8396, "consist": 8397, "orgt": 8398, "abl": 8399, "lief": 8400, "quate": 8401, "(f": 8402, "edit": 8403, "oved": 8404, "-q": 8405, "******": 8406, "paration": 8407, "resident": 8408, "tam": 8409, "inkel": 8410, "muster": 8411, "encore": 8412, "proposition": 8413, "inant": 8414, "toujours": 8415, "\u00e9tait": 8416, "omer": 8417, "incorpor": 8418, "clare": 8419, "ouver": 8420, "islation": 8421, "divul": 8422, "ocate": 8423, "agner": 8424, "isci": 8425, "bringen": 8426, "u\u00df": 8427, "\u00e4ndig": 8428, "fr\u00fc": 8429, "ufen": 8430, "rats": 8431, "daher": 8432, "gamma": 8433, "divider": 8434, "italiana": 8435, "sincer": 8436, "certo": 8437, "volta": 8438, "er\u00e0": 8439, "ificio": 8440, "aument": 8441, "peso": 8442, "vulner": 8443, "realidad": 8444, "medio": 8445, "dific": 8446, "historia": 8447, "t\u00e9cnico": 8448, "ahora": 8449, "ni\u00f1o": 8450, "quarter": 8451, "inspire": 8452, "actory": 8453, "expand": 8454, "fantastic": 8455, "recently": 8456, "revealed": 8457, "indicating": 8458, "shares": 8459, "viewpoint": 8460, "irl": 8461, "inski": 8462, "instance": 8463, "bach": 8464, "twice": 8465, "intricate": 8466, "allow": 8467, "legislation": 8468, "fields": 8469, "rian": 8470, "button": 8471, "showcased": 8472, "command": 8473, "granting": 8474, "few": 8475, "ccb": 8476, "req": 8477, "identifiers": 8478, "wider": 8479, "participated": 8480, "utilization": 8481, "chk": 8482, "inventory": 8483, "requests": 8484, "constant": 8485, "genes": 8486, "faculty": 8487, ".is": 8488, "pil": 8489, "voice": 8490, "ively": 8491, "anga": 8492, "manual": 8493, "anes": 8494, "usting": 8495, "\ud83e\ude7a": 8496, "adam": 8497, "asd": 8498, "stored": 8499, "fraud": 8500, "concerning": 8501, "_methods": 8502, "side": 8503, "hydration": 8504, "asser": 8505, "assisting": 8506, "itan": 8507, "]}": 8508, "master": 8509, "gre": 8510, "ega": 8511, "difficult": 8512, "aye": 8513, "nap": 8514, "urge": 8515, "ffe": 8516, "error": 8517, "evolution": 8518, "stark": 8519, "ains": 8520, "criminal": 8521, "-border": 8522, "tailor": 8523, "leen": 8524, "trad": 8525, "experimental": 8526, "tq": 8527, "native": 8528, "aban": 8529, "brand": 8530, "relations": 8531, "supplier": 8532, "units": 8533, "impacting": 8534, "isco": 8535, "satellite": 8536, "izational": 8537, "isl": 8538, "-image": 8539, "disabilities": 8540, "-se": 8541, "maj": 8542, "erral": 8543, "upt": 8544, "rose": 8545, "roz": 8546, "evac": 8547, "aper": 8548, "<hr": 8549, "cancer": 8550, "-week": 8551, "\"-": 8552, "_support": 8553, "escription": 8554, "hon": 8555, "lok": 8556, "istent": 8557, "egr": 8558, "_conn": 8559, "precis": 8560, "atos": 8561, "orig": 8562, "attrib": 8563, "&nbsp": 8564, "ands": 8565, "erts": 8566, "combin": 8567, "itat": 8568, "olic": 8569, "<t": 8570, "ervisor": 8571, "resultado": 8572, "bart": 8573, "souha": 8574, "int\u00e9ressant": 8575, "meilleur": 8576, "issions": 8577, "rencontr": 8578, "oute": 8579, "diffic": 8580, "ataires": 8581, "concl": 8582, "pi\u00e8ce": 8583, "\u00e9tat": 8584, "r\u00e9ponse": 8585, "ilar": 8586, "isode": 8587, "'all": 8588, "conscience": 8589, "conscient": 8590, "fluid": 8591, "reib": 8592, "genau": 8593, "udio": 8594, "bald": 8595, "meinem": 8596, "\u00f6\u00dfe": 8597, "etwas": 8598, "stra\u00dfe": 8599, "w\u00e4re": 8600, "onte": 8601, "h\u00f6ch": 8602, "renov": 8603, "ichert": 8604, "ellung": 8605, "resist": 8606, "rede": 8607, "geber": 8608, "magg": 8609, "incluso": 8610, "sist": 8611, "s\u00f3": 8612, "consumo": 8613, "controvers": 8614, "cif": 8615, "ejec": 8616, "dise\u00f1o": 8617, "instal": 8618, "n\u00fameros": 8619, "nacional": 8620, "art\u00edculo": 8621, "nuevos": 8622, "ificados": 8623, "chas": 8624, "meses": 8625, "espa\u00f1ol": 8626, "construcci\u00f3n": 8627, "transformative": 8628, "impacts": 8629, "capabilities": 8630, "mile": 8631, "handled": 8632, ".kr": 8633, "studying": 8634, "ight": 8635, "meals": 8636, "ibi": 8637, "mathematics": 8638, "ddb": 8639, "gor": 8640, "ators": 8641, "=\"\"": 8642, "ulk": 8643, "attending": 8644, "housing": 8645, "adequate": 8646, "'],": 8647, "incorporate": 8648, "strictly": 8649, "ferred": 8650, "kz": 8651, "sites": 8652, "mitigate": 8653, "big": 8654, "explored": 8655, "camar": 8656, "talents": 8657, "annual": 8658, "vided": 8659, "uator": 8660, ".pe": 8661, "rastructure": 8662, "devices": 8663, "model": 8664, "igi": 8665, "/h": 8666, "ohan": 8667, "speed": 8668, "showcase": 8669, "examples": 8670, "exchanged": 8671, "patience": 8672, "considered": 8673, "flexibility": 8674, "mac": 8675, "nation": 8676, "uing": 8677, "chim": 8678, "mari": 8679, "sche": 8680, "ots": 8681, ".sp": 8682, "ney": 8683, "aide": 8684, "steady": 8685, "elderly": 8686, "reinforcement": 8687, "breed": 8688, "christ": 8689, "-centered": 8690, "opening": 8691, "foods": 8692, "mur": 8693, "aws": 8694, "<form": 8695, "adb": 8696, "afb": 8697, "disposal": 8698, "scheduling": 8699, "ental": 8700, "-risk": 8701, "bag": 8702, "greetings": 8703, "wz": 8704, "ivel": 8705, "zin": 8706, "vulnerability": 8707, "uts": 8708, "representing": 8709, "unk": 8710, "jal": 8711, "species": 8712, "avig": 8713, "uan": 8714, "sms": 8715, "transcription": 8716, "exec": 8717, "utive": 8718, "tort": 8719, "drones": 8720, "passed": 8721, "sad": 8722, "ady": 8723, "challenge": 8724, "modal": 8725, "jin": 8726, "acute": 8727, "_area": 8728, "struggling": 8729, "adh": 8730, "assi": 8731, "difficulty": 8732, "purchase": 8733, "evolutionary": 8734, "olin": 8735, "cdc": 8736, "rica": 8737, "rov": 8738, "destination": 8739, "infect": 8740, "astro": 8741, "pons": 8742, "heim": 8743, "otto": 8744, "ules": 8745, "idel": 8746, "ohl": 8747, "-inf": 8748, "erner": 8749, "h\u00e9": 8750, "issa": 8751, "edb": 8752, "restrict": 8753, "ngo": 8754, "oping": 8755, "icit": 8756, "_entity": 8757, "_method": 8758, "otic": 8759, "oster": 8760, "rove": 8761, "ikh": 8762, "olv": 8763, "kond": 8764, "/n": 8765, "<c": 8766, "_country": 8767, "afr": 8768, "snel": 8769, "aantal": 8770, "otte": 8771, "etter": 8772, "ulle": 8773, "mano": 8774, "indust": 8775, "commerc": 8776, "treff": 8777, "baby": 8778, "_special": 8779, "phen": 8780, "fce": 8781, "itas": 8782, "eni": 8783, "/t": 8784, "declar": 8785, "ordial": 8786, "refs": 8787, "exemple": 8788, "resid": 8789, "quelle": 8790, "nants": 8791, "jourd": 8792, "semble": 8793, "dur\u00e9e": 8794, "valeur": 8795, "derni\u00e8re": 8796, "c\u00f4t\u00e9": 8797, "accent": 8798, "antis": 8799, "\u2502": 8800, "pharm": 8801, "pays": 8802, "rai": 8803, "istor": 8804, "descri": 8805, "iform": 8806, "_place": 8807, "focal": 8808, "ichern": 8809, "(er": 8810, "cken": 8811, "jedoch": 8812, "verst\u00e4nd": 8813, "reffen": 8814, "rieb": 8815, "schwer": 8816, "-support": 8817, "'/>": 8818, "engu": 8819, "arlo": 8820, "incontri": 8821, "compagn": 8822, "numeros": 8823, "fino": 8824, "quali": 8825, "celebr": 8826, "precisa": 8827, "inser": 8828, "cerca": 8829, "memoria": 8830, "_region": 8831, "sistemas": 8832, "uencia": 8833, "escrit": 8834, "tenemos": 8835, "momentos": 8836, "enviar": 8837, "dudes": 8838, "adamente": 8839, "conect": 8840, "enfer": 8841, "xima": 8842, "comerc": 8843, "professor": 8844, "hands": 8845, "aea": 8846, "itionally": 8847, "-sharing": 8848, "punct": 8849, "_parent": 8850, "remind": 8851, "enthusiasm": 8852, "generated": 8853, "causes": 8854, "grants": 8855, "spect": 8856, "ecd": 8857, "intros": 8858, "regard": 8859, "vendor": 8860, "aza": 8861, "exclusive": 8862, "ides": 8863, "asthma": 8864, "adding": 8865, "protecting": 8866, "authenticity": 8867, "welcoming": 8868, "fal": 8869, "wow": 8870, "outstanding": 8871, "helpful": 8872, "seeks": 8873, "lyn": 8874, "friendly": 8875, "standardized": 8876, "acd": 8877, "beliefs": 8878, "supported": 8879, "partnerships": 8880, "disclosed": 8881, "linguistic": 8882, "priorit": 8883, "resolve": 8884, "underscore": 8885, "prehensive": 8886, "yle": 8887, "contracts": 8888, "uggestions": 8889, "investment": 8890, "-------------": 8891, "remed": 8892, "milestones": 8893, "hib": 8894, "ivation": 8895, "\ud83c\udf0d": 8896, "stated": 8897, "lack": 8898, "road": 8899, "shops": 8900, "jurisdiction": 8901, "validate": 8902, "travel": 8903, "existing": 8904, "losure": 8905, "rect": 8906, "fdb": 8907, "fcc": 8908, "indicate": 8909, "sid": 8910, "ipp": 8911, "ories": 8912, "protein": 8913, "cle": 8914, "hans": 8915, "bone": 8916, ".ver": 8917, ".we": 8918, "posal": 8919, ".pro": 8920, "interpretation": 8921, "display": 8922, "documented": 8923, "frame": 8924, "ervo": 8925, "umb": 8926, "placement": 8927, "fz": 8928, "lam": 8929, "boost": 8930, ".man": 8931, "freedom": 8932, "ird": 8933, "iii": 8934, "ould": 8935, "corporate": 8936, "workers": 8937, ".am": 8938, "suspicious": 8939, "daf": 8940, "csv": 8941, "securities": 8942, "aser": 8943, ".qu": 8944, "awa": 8945, "ayan": 8946, "\"value": 8947, "uant": 8948, "(m": 8949, "ury": 8950, "sav": 8951, "ania": 8952, "unication": 8953, ".pr": 8954, "-playing": 8955, "presenter": 8956, "hir": 8957, "analyzing": 8958, "dialect": 8959, "caregiver": 8960, "ased": 8961, "_find": 8962, "reasoning": 8963, "ights": 8964, "profess": 8965, "sound": 8966, "fec": 8967, ".mat": 8968, "sensation": 8969, "periences": 8970, "-el": 8971, "velopment": 8972, "executed": 8973, "usp": 8974, "icz": 8975, "igue": 8976, "abus": 8977, "_monitor": 8978, "degree": 8979, "uet": 8980, "_v": 8981, "rows": 8982, "avor": 8983, "iol": 8984, "obst": 8985, "ducted": 8986, "ony": 8987, "_se": 8988, "juan": 8989, "crime": 8990, "eba": 8991, "commercial": 8992, "itude": 8993, "fff": 8994, "manifest": 8995, "impuls": 8996, "_str": 8997, "oden": 8998, "ensity": 8999, "_expression": 9000, "]\",": 9001, "lokale": 9002, "inds": 9003, "enga": 9004, "sterdam": 9005, "------------": 9006, "ynam": 9007, "schon": 9008, "zend": 9009, "gradu": 9010, "intelligent": 9011, "---------": 9012, "jay": 9013, "ramp": 9014, "_dr": 9015, "engo": 9016, "bureau": 9017, "vir": 9018, "correl": 9019, "simul": 9020, "ool": 9021, "forc": 9022, "onnen": 9023, "apa": 9024, "b\u00fc": 9025, "{\\\"": 9026, "arem": 9027, "d\u00e9s": 9028, "effet": 9029, "oint": 9030, "invalid": 9031, "moi": 9032, "peu": 9033, "publi": 9034, "endra": 9035, "rempl": 9036, "piration": 9037, "aub": 9038, "entra": 9039, "ferm": 9040, "automat": 9041, "savoir": 9042, "\u00e9p": 9043, "uche": 9044, "enus": 9045, "adapter": 9046, "mons": 9047, "m\u00e9dec": 9048, "repos": 9049, "problematic": 9050, "roupe": 9051, "traf": 9052, "aminer": 9053, "icamente": 9054, "concent": 9055, "onest": 9056, "cret": 9057, "riter": 9058, "jedem": 9059, "f\u00e4h": 9060, "chs": 9061, "annt": 9062, "oce": 9063, "enschaft": 9064, "riere": 9065, "piel": 9066, "schn": 9067, "endet": 9068, "oras": 9069, "gem\u00e4\u00df": 9070, "argest": 9071, "recruiter": 9072, "****": 9073, "mere": 9074, "reative": 9075, "prova": 9076, "ademic": 9077, ".',": 9078, "agini": 9079, "ci\u00f2": 9080, "squad": 9081, "unger": 9082, "dove": 9083, "sesso": 9084, ")]": 9085, "tarde": 9086, "voz": 9087, "viene": 9088, "mediante": 9089, "soy": 9090, "ertas": 9091, "inicial": 9092, "clase": 9093, "\u00edstico": 9094, "espec": 9095, "\u00f3pez": 9096, "\u00e1nd": 9097, "imagen": 9098, "semanas": 9099, "pero": 9100, "\u00edan": 9101, "\u00fatil": 9102, "ofrece": 9103, "mensajes": 9104, "parece": 9105, "igual": 9106, "tienes": 9107, "v\u00eddeos": 9108, "\u00e1rea": 9109, "p\u00fablico": 9110, "mercado": 9111, "medios": 9112, "\u00e1fico": 9113, "sean": 9114, "utilized": 9115, "evolving": 9116, "idents": 9117, "displays": 9118, "viewpoints": 9119, "chance": 9120, "ways": 9121, "avid": 9122, "wit": 9123, "sheds": 9124, "behind": 9125, "concise": 9126, "laboratory": 9127, "indi": 9128, "innovations": 9129, ".car": 9130, "breaks": 9131, "arah": 9132, "meanwhile": 9133, "mild": 9134, "impressed": 9135, "pleasure": 9136, "news": 9137, "vulnerabilities": 9138, "interface": 9139, "andre": 9140, "page": 9141, "alignment": 9142, "quick": 9143, "optimizing": 9144, "bell": 9145, "scores": 9146, "amy": 9147, "director": 9148, "-driven": 9149, "contributor": 9150, "evaluating": 9151, "'),": 9152, "cbd": 9153, "got": 9154, "agan": 9155, "businesses": 9156, "move": 9157, "father": 9158, "thoroughly": 9159, "sparked": 9160, "minimal": 9161, "aspirations": 9162, "achievement": 9163, "hj": 9164, "usernames": 9165, "imperative": 9166, "reviews": 9167, "breakdown": 9168, "meets": 9169, "gether": 9170, "_requirements": 9171, "yoga": 9172, "mindful": 9173, "ened": 9174, "\ud83d\udca1": 9175, "preventing": 9176, "idual": 9177, "jak": 9178, "hub": 9179, "accurately": 9180, "lav": 9181, "doe": 9182, "unnamed": 9183, "senior": 9184, "encouragement": 9185, "gement": 9186, "enger": 9187, "ulin": 9188, "complications": 9189, "damage": 9190, "ointment": 9191, "<table": 9192, ".be": 9193, "greater": 9194, "uable": 9195, "hold": 9196, "applicable": 9197, "remote": 9198, "dor": 9199, "maxim": 9200, "ted": 9201, "nowled": 9202, "wes": 9203, "arp": 9204, "sey": 9205, "raising": 9206, "going": 9207, "blogs": 9208, "someone": 9209, "awan": 9210, "statements": 9211, "_inv": 9212, "common": 9213, ".and": 9214, "dep": 9215, "compassionate": 9216, "unte": 9217, "-expression": 9218, "otech": 9219, "aching": 9220, "fast": 9221, "arbitration": 9222, "gin": 9223, "vz": 9224, "ption": 9225, "rome": 9226, "ended": 9227, "luz": 9228, "orr": 9229, "raw": 9230, "_requested": 9231, "\u00e7a": 9232, "indiv": 9233, "escal": 9234, ".bel": 9235, "sof": 9236, "unque": 9237, "pez": 9238, "fit": 9239, "exceptions": 9240, "kas": 9241, "mitig": 9242, "!</": 9243, "feeding": 9244, "secret": 9245, "validation": 9246, "ffd": 9247, "vinc": 9248, "tourism": 9249, "iable": 9250, "_rate": 9251, "(pr": 9252, ")),": 9253, "credit": 9254, "posure": 9255, "ayo": 9256, "_update": 9257, "wand": 9258, ">-": 9259, "terug": 9260, "ifa": 9261, "aving": 9262, "arbe": 9263, "akte": 9264, "itaire": 9265, "loop": 9266, "vice": 9267, "orges": 9268, "_commit": 9269, "creen": 9270, "kenn": 9271, "_pl": 9272, "inge": 9273, "quantity": 9274, "atmos": 9275, "\"<": 9276, ".str": 9277, "odynam": 9278, "cols": 9279, "inka": 9280, "oft": 9281, "_subject": 9282, ".par": 9283, "ango": 9284, "d\u00e9velop": 9285, "soit": 9286, "fa\u00e7on": 9287, "'action": 9288, "lire": 9289, "accompagn": 9290, "pourrait": 9291, "[f": 9292, "resses": 9293, "formations": 9294, "\u00fbt": 9295, "m\u00e9decin": 9296, "obt": 9297, "travers": 9298, "trimest": 9299, "parole": 9300, "g\u00e9n\u00e9": 9301, "sp\u00e9cifique": 9302, "ograph": 9303, "_signed": 9304, "-so": 9305, "vio": 9306, "spat": 9307, "justo": 9308, "difficile": 9309, "acqu": 9310, "libert": 9311, "ferr": 9312, "_att": 9313, "_focus": 9314, "wohl": 9315, "vom": 9316, "f\u00fchren": 9317, "k\u00f6nnte": 9318, "r\u00fcck": 9319, "sucht": 9320, "*r": 9321, "bisher": 9322, "linik": 9323, "sterol": 9324, "lust": 9325, "ucher": 9326, "[],": 9327, "anguard": 9328, "deve": 9329, "visto": 9330, "sede": 9331, "affid": 9332, "qualche": 9333, "attractions": 9334, "autoc": 9335, "calle": 9336, "\"),": 9337, "\u00f3digo": 9338, "seleccion": 9339, "siempre": 9340, "untas": 9341, "barcelona": 9342, "fueron": 9343, "uestos": 9344, "actor": 9345, "estim": 9346, "olicit": 9347, "jue": 9348, "cuanto": 9349, "a\u00f1os": 9350, "carrera": 9351, "oficial": 9352, "utiliza": 9353, "ogr\u00e1f": 9354, "alumno": 9355, "peque": 9356, "lanz": 9357, "notas": 9358, ".il": 9359, "allowing": 9360, "immersive": 9361, "experiments": 9362, "leverage": 9363, "double": 9364, "entries": 9365, "olutely": 9366, "makes": 9367, "classrooms": 9368, "olving": 9369, ")*": 9370, "shape": 9371, "grow": 9372, "celebrate": 9373, ".cal": 9374, "generation": 9375, "combating": 9376, "combat": 9377, "worked": 9378, "addressed": 9379, "candidates": 9380, "thanks": 9381, "conducive": 9382, "sky": 9383, "requiring": 9384, "essence": 9385, "clock": 9386, "equip": 9387, "\u23f0": 9388, "holders": 9389, "lette": 9390, "-free": 9391, "domin": 9392, "tomorrow": 9393, "stressed": 9394, "\"a": 9395, "does": 9396, "reflects": 9397, "contributes": 9398, "arrive": 9399, "[k": 9400, "return": 9401, "park": 9402, "wide": 9403, "methodologies": 9404, "entertainment": 9405, "-th": 9406, "discover": 9407, "tail": 9408, "\ud83d\udcd6": 9409, "endeavor": 9410, "contacts": 9411, "yer": 9412, ".as": 9413, "either": 9414, "ichael": 9415, "veh": 9416, "ians": 9417, "guardian": 9418, "give": 9419, "graduation": 9420, "_required": 9421, "beneficial": 9422, "\ud83d\udc4f": 9423, "close": 9424, "myself": 9425, "mobility": 9426, "stake": 9427, "gers": 9428, "assignment": 9429, "reasons": 9430, "mic": 9431, "rab": 9432, "editing": 9433, "ames": 9434, "french": 9435, "cele": 9436, "iron": 9437, "directly": 9438, "entities": 9439, "lay": 9440, "external": 9441, "hma": 9442, "statistics": 9443, "nutritious": 9444, "erie": 9445, "oly": 9446, "audi": 9447, "waivers": 9448, "billing": 9449, "transf": 9450, "societal": 9451, "boards": 9452, "<v": 9453, "heard": 9454, "discharge": 9455, "direction": 9456, "iac": 9457, "extended": 9458, "assign": 9459, "fees": 9460, "rew": 9461, "copyright": 9462, "clause": 9463, "perf": 9464, "iona": 9465, "reduced": 9466, "bq": 9467, "(h": 9468, "stone": 9469, "harm": 9470, "-profit": 9471, "stronger": 9472, "engages": 9473, "ivia": 9474, "ower": 9475, "refugee": 9476, "price": 9477, "bid": 9478, "igan": 9479, "dealing": 9480, "alone": 9481, "assessing": 9482, "ourse": 9483, "drugs": 9484, "bay": 9485, "h\u00e4": 9486, "kul": 9487, "white": 9488, "vec": 9489, "lon": 9490, "dysfunction": 9491, "won": 9492, ":add": 9493, "detox": 9494, "schizophrenia": 9495, "hof": 9496, "biological": 9497, "_analysis": 9498, "receiving": 9499, "...]": 9500, "cdf": 9501, "gear": 9502, "_party": 9503, ":\"": 9504, "filled": 9505, "atter": 9506, "iran": 9507, "ulas": 9508, "ahi": 9509, "destiny": 9510, "amel": 9511, "gie": 9512, "erez": 9513, "\"},{\"": 9514, "reek": 9515, "osh": 9516, "marc": 9517, "bff": 9518, "alem": 9519, "pract": 9520, "bast": 9521, "ike": 9522, "vidence": 9523, "wing": 9524, "_activities": 9525, "partial": 9526, "uci": 9527, "ubb": 9528, "_day": 9529, "bos": 9530, "ration": 9531, "lut": 9532, "_comm": 9533, "usive": 9534, "bol": 9535, "radiation": 9536, "envi": 9537, "dimension": 9538, "kehr": 9539, "angel": 9540, "laure": 9541, "phon": 9542, "isms": 9543, "etr": 9544, "iever": 9545, "_strategy": 9546, "relat": 9547, "stad": 9548, "fst": 9549, "hele": 9550, "ienen": 9551, "ossier": 9552, "bless": 9553, "\"h": 9554, "bfd": 9555, "_period": 9556, "beide": 9557, "owel": 9558, "acent": 9559, "natuur": 9560, "(n": 9561, "otp": 9562, "vang": 9563, "atre": 9564, "diagnose": 9565, "?)": 9566, "hop": 9567, "moderne": 9568, "illustr": 9569, "....": 9570, "rends": 9571, "klass": 9572, "ugar": 9573, "ichel": 9574, "tur": 9575, "sect": 9576, "patial": 9577, "rencontre": 9578, "pr\u00e8s": 9579, "suspect": 9580, "ennent": 9581, "caract": 9582, "cub": 9583, "nouvel": 9584, "tiers": 9585, "\u00e9quip": 9586, "roit": 9587, "obs": 9588, "b\u00e9n\u00e9fic": 9589, "utilise": 9590, "finale": 9591, "particuli\u00e8re": 9592, "corps": 9593, "organisations": 9594, "gres": 9595, "-me": 9596, "successor": 9597, "diff\u00e9": 9598, "'',": 9599, "strate": 9600, "wahl": 9601, "lers": 9602, "daf\u00fcr": 9603, "alter": 9604, "liegt": 9605, "rund": 9606, "schnell": 9607, "f\u00e4hig": 9608, "ichtet": 9609, "ohne": 9610, "rieben": 9611, "etre": 9612, "bull": 9613, "elimin": 9614, "hast": 9615, "unb": 9616, "funktion": 9617, "seiner": 9618, "indem": 9619, "/r": 9620, "ucose": 9621, "ibt": 9622, "ellers": 9623, "\u00e4ll": 9624, "-information": 9625, "|\"": 9626, "||||": 9627, "curr": 9628, "ematic": 9629, "oltre": 9630, "caratter": 9631, "novit\u00e0": 9632, "consegu": 9633, "cosa": 9634, "citt": 9635, "quad": 9636, "iasm": 9637, "grado": 9638, "endar": 9639, "masc": 9640, "coppia": 9641, "uario": 9642, "\u00edd": 9643, "udas": 9644, "entrada": 9645, "estilo": 9646, "carn": 9647, "undo": 9648, "hablar": 9649, "gobierno": 9650, "opciones": 9651, "otra": 9652, "\u00f3logo": 9653, "enviado": 9654, "inversi\u00f3n": 9655, "poblaci\u00f3n": 9656, "c\u00e1": 9657, "uegos": 9658, "disput": 9659, "empresas": 9660, "constit": 9661, "alimentos": 9662, "uka": 9663, "schedules": 9664, "component": 9665, "dil": 9666, "_reg": 9667, "themselves": 9668, "mine": 9669, "ahead": 9670, ".at": 9671, "inos": 9672, ".te": 9673, "overcoming": 9674, "_me": 9675, "holds": 9676, "mana": 9677, "determination": 9678, "lunch": 9679, "resolved": 9680, "disciplinary": 9681, "premises": 9682, "since": 9683, "speakers": 9684, "contributors": 9685, "aira": 9686, "mul": 9687, "vey": 9688, "beyond": 9689, "arrangements": 9690, "journeys": 9691, "injury": 9692, "staying": 9693, "save": 9694, "ctions": 9695, "custody": 9696, "search": 9697, "wildlife": 9698, "differences": 9699, "spaces": 9700, "numb": 9701, "introducing": 9702, "_work": 9703, "&a": 9704, "reflections": 9705, "herein": 9706, "surveys": 9707, "advancement": 9708, "ividual": 9709, "contacted": 9710, "forget": 9711, "itive": 9712, "_amount": 9713, "allows": 9714, "*.": 9715, "indicated": 9716, "heritage": 9717, "iciency": 9718, ".']": 9719, "tj": 9720, "vik": 9721, "xv": 9722, ".ad": 9723, "half": 9724, ".cor": 9725, ".ag": 9726, "ematics": 9727, "remark": 9728, "joy": 9729, "came": 9730, ".sk": 9731, "calendar": 9732, "\ud83d\udcaa": 9733, "igned": 9734, "pref": 9735, "ured": 9736, "reflected": 9737, "processed": 9738, "provision": 9739, "however": 9740, "followed": 9741, "satisfied": 9742, "-opening": 9743, "yal": 9744, "elder": 9745, "parenting": 9746, "yet": 9747, "-child": 9748, "involves": 9749, "inal": 9750, "akis": 9751, "ility": 9752, "regardless": 9753, "customized": 9754, "pur": 9755, "supervisor": 9756, "affairs": 9757, "bill": 9758, ").</": 9759, "ernal": 9760, "advocates": 9761, "dcc": 9762, "hazardous": 9763, "inspect": 9764, "row": 9765, "\ud83d\udc65": 9766, "legend": 9767, "blue": 9768, "meth": 9769, "machine": 9770, "hydr": 9771, "costs": 9772, "applied": 9773, "quet": 9774, "timelines": 9775, "dac": 9776, "saf": 9777, "(*": 9778, "collaborating": 9779, "efficacy": 9780, "stability": 9781, "legislative": 9782, "ch\u00e9": 9783, "hazards": 9784, "iod": 9785, "sourcing": 9786, "xu": 9787, "transcripts": 9788, "ayer": 9789, "navig": 9790, "emann": 9791, "observe": 9792, "fieldname": 9793, "shi": 9794, "avin": 9795, "endant": 9796, "ift": 9797, "jav": 9798, "anted": 9799, "utility": 9800, "river": 9801, "settlement": 9802, "exped": 9803, ".lo": 9804, "rief": 9805, "measurement": 9806, "cope": 9807, "automatic": 9808, "relax": 9809, "accommodations": 9810, "dfa": 9811, "comprehension": 9812, "problems": 9813, "bcd": 9814, "psychologists": 9815, "isolation": 9816, "aign": 9817, "obsessive": 9818, "leo": 9819, "arel": 9820, "ently": 9821, "iness": 9822, "hed": 9823, "lications": 9824, "iba": 9825, "nee": 9826, "itten": 9827, "_feedback": 9828, "txt": 9829, "aad": 9830, "ogi": 9831, "menu": 9832, "oler": 9833, "lov": 9834, "urr": 9835, "bpm": 9836, "<section": 9837, "nurse": 9838, "stap": 9839, "anzi": 9840, "sentiment": 9841, "-ab": 9842, "(driver": 9843, "lli": 9844, "sez": 9845, "-fr": 9846, "beneficiary": 9847, "essel": 9848, "expos": 9849, "rops": 9850, "aris": 9851, "gment": 9852, "priv\u00e9": 9853, "advis": 9854, "zonder": 9855, "iem": 9856, "ateria": 9857, "gun": 9858, "ontvangst": 9859, "}}</": 9860, "\u2014": 9861, "wilt": 9862, "uze": 9863, "econom": 9864, "rug": 9865, "\"go": 9866, "_request": 9867, "anco": 9868, "tand": 9869, ".ne": 9870, "-de": 9871, "pai": 9872, "bund": 9873, "quot": 9874, "rer": 9875, "dere": 9876, "exter": 9877, "statist": 9878, "naire": 9879, "?</": 9880, "ois": 9881, "roommate": 9882, "elog": 9883, "oller": 9884, "igr": 9885, "-gr": 9886, "fotograf": 9887, "mou": 9888, "r\u00e9alis": 9889, "r\u00e9alit\u00e9": 9890, "oyer": 9891, "\u00eam": 9892, "complexes": 9893, "ariat": 9894, "ourses": 9895, "dernier": 9896, "ann\u00e9e": 9897, "coh": 9898, "diam": 9899, "adapt\u00e9": 9900, "quence": 9901, "voyage": 9902, "parfait": 9903, "relatives": 9904, "_statement": 9905, "d\u00e9fin": 9906, "fic": 9907, "qua": 9908, "ilde": 9909, "utter": 9910, "propri\u00e9t\u00e9": 9911, "liber": 9912, "nombreux": 9913, "odos": 9914, "><!--": 9915, "\u00f6k": 9916, "avia": 9917, "_follow": 9918, "sentir": 9919, "minim": 9920, "_timestamp": 9921, "\ud83c\udde8": 9922, "\u00e4s": 9923, "\u00f6ffent": 9924, "achsen": 9925, "ufs": 9926, "leich": 9927, "gr\u00f6\u00df": 9928, "toll": 9929, "organs": 9930, "toler": 9931, "[...": 9932, "sotto": 9933, "urate": 9934, "deriv": 9935, "valido": 9936, "difficolt\u00e0": 9937, "lasc": 9938, "clud": 9939, "quale": 9940, "dispositivo": 9941, "adoles": 9942, "_persona": 9943, "volte": 9944, "tengo": 9945, "ci\u00f3": 9946, "\u00f1as": 9947, "redes": 9948, "\u00fanico": 9949, "cursos": 9950, "sitio": 9951, "mites": 9952, "llegar": 9953, ">*</": 9954, "ma\u00f1ana": 9955, "especialmente": 9956, "tiles": 9957, "f\u00edsico": 9958, "buscar": 9959, "sentido": 9960, "extrem": 9961, "formas": 9962, "noticias": 9963, "ejemplo": 9964, "ograf\u00eda": 9965, "elfare": 9966, "func": 9967, "admissions": 9968, "attachments": 9969, "possibilities": 9970, "simulations": 9971, "egrate": 9972, "izens": 9973, "harness": 9974, "pressive": 9975, "variety": 9976, "ihan": 9977, "maintains": 9978, "ethic": 9979, "foundation": 9980, "memories": 9981, "lotte": 9982, "alph": 9983, "mean": 9984, "tru": 9985, "ically": 9986, "explained": 9987, "interview": 9988, "wealth": 9989, "gone": 9990, "again": 9991, "akh": 9992, "uko": 9993, "random": 9994, "talented": 9995, "recognition": 9996, "-out": 9997, "helped": 9998, "verifying": 9999, "concluded": 10000, "composition": 10001, "images": 10002, "copy": 10003, "whether": 10004, "things": 10005, ")):": 10006, "catalog": 10007, "certified": 10008, "ints": 10009, "priorities": 10010, "dedicate": 10011, "emphasizes": 10012, "jit": 10013, "explores": 10014, "focuses": 10015, "iesen": 10016, "generations": 10017, "coordinating": 10018, "coding": 10019, "extend": 10020, "recognized": 10021, "suggests": 10022, "advocated": 10023, "-il": 10024, "kus": 10025, "lining": 10026, "delays": 10027, "eligibility": 10028, "quite": 10029, "german": 10030, "suit": 10031, "array": 10032, "loved": 10033, "drills": 10034, "cedure": 10035, "ward": 10036, "clean": 10037, "positivity": 10038, "smart": 10039, "equipped": 10040, "single": 10041, "notifications": 10042, "developer": 10043, "quez": 10044, "attendees": 10045, "drawing": 10046, "-quality": 10047, "deeply": 10048, "solely": 10049, "surgical": 10050, "vaccinations": 10051, "thi": 10052, "_provider": 10053, "grab": 10054, "chedule": 10055, "magn": 10056, "zon": 10057, "\ud83c\udf3f": 10058, "orce": 10059, "\ud83d\udcac": 10060, "atology": 10061, "emia": 10062, "sounds": 10063, "theme": 10064, "terminate": 10065, "ssa": 10066, "mik": 10067, "appoint": 10068, "attest": 10069, "govern": 10070, "attorney": 10071, "defense": 10072, "olvency": 10073, "emission": 10074, "{'": 10075, "driv": 10076, ",c": 10077, "fad": 10078, "suspected": 10079, "match": 10080, "ylv": 10081, "marg": 10082, "licensing": 10083, "query": 10084, "intended": 10085, "bow": 10086, "defendant": 10087, "constitutional": 10088, "bdd": 10089, "dff": 10090, "dde": 10091, "riet": 10092, "negotiation": 10093, "gon": 10094, "frequent": 10095, ".sz": 10096, "cannot": 10097, "etc": 10098, "mindset": 10099, "alar": 10100, "outer": 10101, "adir": 10102, "ponder": 10103, "tranqu": 10104, "schema": 10105, "counselors": 10106, "sher": 10107, "noise": 10108, "ather": 10109, "ulf": 10110, "chu": 10111, "small": 10112, "trouble": 10113, "haven": 10114, "urf": 10115, "incon": 10116, "mam": 10117, "administering": 10118, "bic": 10119, "employer": 10120, "nutrient": 10121, "engagements": 10122, "inator": 10123, "markers": 10124, "aru": 10125, "flight": 10126, "lop": 10127, "branch": 10128, "pra": 10129, "\ud83c\udd94": 10130, "sections": 10131, "git": 10132, "basic": 10133, "ako": 10134, "box": 10135, "nia": 10136, "ulla": 10137, "donor": 10138, "opc": 10139, "obi": 10140, "drafting": 10141, "pow": 10142, "urgery": 10143, "_at": 10144, "recover": 10145, "izer": 10146, "rolled": 10147, "\u00f0": 10148, "aha": 10149, "_ab": 10150, "chie": 10151, "dae": 10152, "fef": 10153, "block": 10154, "(passport": 10155, "subscription": 10156, ".ke": 10157, "eee": 10158, "(c": 10159, "orney": 10160, "zia": 10161, "loo": 10162, "orf": 10163, "apse": 10164, "igital": 10165, "attr": 10166, "rage": 10167, "abo": 10168, "oge": 10169, "chauff": 10170, "unning": 10171, "*e": 10172, "cff": 10173, "igers": 10174, "promot": 10175, "\u00fcst": 10176, "enk": 10177, "ester": 10178, "fot": 10179, "grote": 10180, "ri\u00e8re": 10181, "uft": 10182, "rong": 10183, "athe": 10184, "elta": 10185, "_holder": 10186, "_standard": 10187, "-ce": 10188, "iveau": 10189, "ofs": 10190, "designer": 10191, "aed": 10192, "_(": 10193, "euros": 10194, "deutsch": 10195, "trou": 10196, "icious": 10197, "usr": 10198, "sequ": 10199, "shan": 10200, "cot": 10201, "assoc": 10202, "\u00e7on": 10203, "criptions": 10204, "notamment": 10205, "terme": 10206, "entreprises": 10207, "musica": 10208, "parten": 10209, "villa": 10210, "m\u00e9thode": 10211, "onia": 10212, "antic": 10213, "ipes": 10214, "\"'": 10215, "arriv": 10216, "domicile": 10217, "bau": 10218, "trouv\u00e9": 10219, "police": 10220, "_resolution": 10221, "voy": 10222, "chemin": 10223, "'article": 10224, "nerg": 10225, "pr\u00e9c\u00e9d": 10226, "obili": 10227, "requesting": 10228, "catast": 10229, "iliation": 10230, "\u00f6t": 10231, "confort": 10232, "-u": 10233, "explic": 10234, "sollen": 10235, "f\u00e4ll": 10236, "eben": 10237, "haft": 10238, "l\u00f6sung": 10239, "\u00e4hlt": 10240, "wollte": 10241, "kata": 10242, "erkl\u00e4rt": 10243, "ufe": 10244, "cribe": 10245, "izo": 10246, "meno": 10247, "quando": 10248, "trovare": 10249, "eleg": 10250, "motivo": 10251, "fatt": 10252, "et\u00e0": 10253, "milano": 10254, "perse": 10255, "modalit\u00e0": 10256, "_es": 10257, "&lt": 10258, "()',": 10259, "uyo": 10260, "aumento": 10261, "energ\u00eda": 10262, "\u00edg": 10263, "alez": 10264, "tarea": 10265, "entidad": 10266, "entrega": 10267, "quienes": 10268, "totalmente": 10269, "iado": 10270, "t\u00e9cnica": 10271, "responder": 10272, "podr\u00eda": 10273, "im\u00e1genes": 10274, "v\u00e1l": 10275, "applicants": 10276, "lessons": 10277, "particular": 10278, ".uk": 10279, "ancing": 10280, "collaborations": 10281, "works": 10282, "spot": 10283, "grateful": 10284, "dream": 10285, "submitting": 10286, "aldo": 10287, "barriers": 10288, "spotlight": 10289, "noticed": 10290, "unnoticed": 10291, "incredibly": 10292, "dishonest": 10293, "layer": 10294, "emerge": 10295, "sand": 10296, "allergy": 10297, "intriguing": 10298, "compelling": 10299, "tension": 10300, "voices": 10301, "izes": 10302, "identities": 10303, "six": 10304, "accommodate": 10305, "outside": 10306, "adds": 10307, "ally": 10308, "passionate": 10309, "insert": 10310, "rud": 10311, "vip": 10312, "[h": 10313, "encountered": 10314, "logged": 10315, "ying": 10316, "feed": 10317, "methodology": 10318, "reflecting": 10319, "guardians": 10320, "spring": 10321, "respectively": 10322, "couldn": 10323, "moderation": 10324, "warning": 10325, "workflow": 10326, "kad": 10327, ">+": 10328, "atform": 10329, "multimedia": 10330, "expansion": 10331, "books": 10332, "database": 10333, "suggestion": 10334, "broader": 10335, "_criteria": 10336, "concert": 10337, "lock": 10338, "wid": 10339, "technological": 10340, "demon": 10341, "uncover": 10342, "physics": 10343, "acquisition": 10344, "-taking": 10345, "never": 10346, "recipients": 10347, "instances": 10348, "\ud83c\udfa5": 10349, "discrepancies": 10350, "vehicles": 10351, "posted": 10352, "vul": 10353, "certainly": 10354, "dreams": 10355, "execution": 10356, "cales": 10357, "andi": 10358, "furthermore": 10359, "central": 10360, "audio": 10361, "contrast": 10362, "computer": 10363, "edic": 10364, "_sign": 10365, "possess": 10366, "imes": 10367, "caregivers": 10368, "reproductive": 10369, "itions": 10370, "_services": 10371, "mechanism": 10372, "items": 10373, "loy": 10374, "corrective": 10375, "supplies": 10376, "-health": 10377, "delivering": 10378, "anya": 10379, "cac": 10380, "profound": 10381, "complement": 10382, ".sal": 10383, "suma": 10384, "unch": 10385, "leads": 10386, "accidents": 10387, "-ro": 10388, "statistical": 10389, "[m": 10390, "isons": 10391, "dile": 10392, "obj": 10393, "algorithms": 10394, "specialists": 10395, "hyp": 10396, ".me": 10397, "hygiene": 10398, "filling": 10399, ">'": 10400, "oux": 10401, "hidden": 10402, "fullname": 10403, "ensor": 10404, "detailing": 10405, "inch": 10406, "oil": 10407, "atin": 10408, "clamation": 10409, "amination": 10410, "wis": 10411, "customers": 10412, "oko": 10413, "akan": 10414, "zg": 10415, "asing": 10416, "(o": 10417, "disruptions": 10418, "_tr": 10419, "dition": 10420, "stor": 10421, "anas": 10422, "corp": 10423, "gambling": 10424, "recognize": 10425, "telecommunications": 10426, "fusion": 10427, "aqu": 10428, "penalties": 10429, "vulnerable": 10430, "(g": 10431, "backup": 10432, "token": 10433, "recording": 10434, "terrain": 10435, "cce": 10436, "anges": 10437, ".em": 10438, "asso": 10439, "arma": 10440, "symptom": 10441, "varying": 10442, "pav": 10443, "reass": 10444, "insomnia": 10445, "fir": 10446, "foc": 10447, "erra": 10448, "umas": 10449, "wig": 10450, "asha": 10451, "awi": 10452, "developmental": 10453, "-sh": 10454, "chw": 10455, "uke": 10456, "-help": 10457, "repeat": 10458, "predis": 10459, "batt": 10460, "cek": 10461, "odia": 10462, "agencies": 10463, "kah": 10464, "airport": 10465, "lectures": 10466, "tags": 10467, "acts": 10468, "congrat": 10469, "_na": 10470, "pron": 10471, "zej": 10472, ".er": 10473, ".per": 10474, "alam": 10475, "minimum": 10476, "nin": 10477, "franc": 10478, "fear": 10479, "stock": 10480, "ffer": 10481, "nak": 10482, "coc": 10483, "pared": 10484, "ucci": 10485, ".ph": 10486, "chapter": 10487, "-car": 10488, "gross": 10489, "@[": 10490, "allergic": 10491, "kit": 10492, "trigger": 10493, "lla": 10494, "apy": 10495, "_condition": 10496, "ecz": 10497, "liness": 10498, "aler": 10499, ".ed": 10500, "ivar": 10501, "conom": 10502, "erving": 10503, "coni": 10504, "wall": 10505, "pdf": 10506, "ction": 10507, "ential": 10508, ":bold": 10509, "-collar": 10510, "_tel": 10511, "_ins": 10512, ":def": 10513, "rapid": 10514, "recommendation": 10515, "rimon": 10516, "etrics": 10517, "essay": 10518, "rita": 10519, "keer": 10520, "tin": 10521, "lessen": 10522, "buiten": 10523, "legitim": 10524, "'n": 10525, "_stand": 10526, "teg": 10527, "rotterdam": 10528, "nts": 10529, "servic": 10530, "-feedback": 10531, "ean": 10532, "obb": 10533, "incip": 10534, "_received": 10535, "itis": 10536, "inas": 10537, "opl": 10538, "airs": 10539, "-val": 10540, "\u00fcp": 10541, "\u00f9": 10542, "macht": 10543, "advoc": 10544, ";n": 10545, "plag": 10546, "faf": 10547, "tres": 10548, "edy": 10549, "compat": 10550, "krist": 10551, "gni": 10552, ".pdf": 10553, "warehouse": 10554, "poi": 10555, "jem": 10556, "elligence": 10557, "\\\"]": 10558, "nou": 10559, "trie": 10560, "[id": 10561, "r\u00e9al": 10562, "ivant": 10563, "d\u00e9couvrir": 10564, "mois": 10565, "enses": 10566, "tir": 10567, "gr\u00e9": 10568, "jours": 10569, "tons": 10570, "teng": 10571, "r\u00e9seau": 10572, "fins": 10573, "pouvoir": 10574, "iteur": 10575, "sp\u00e9cialis\u00e9": 10576, "raison": 10577, "positives": 10578, "_study": 10579, "li\u00e9": 10580, "tribunal": 10581, "**)": 10582, "ordon": 10583, "-plan": 10584, "verture": 10585, "semaine": 10586, "appare": 10587, "d\u00e9marche": 10588, "_la": 10589, "sach": 10590, "compl\u00e8te": 10591, ",,,,": 10592, "conde": 10593, "nour": 10594, "ety": 10595, "estre": 10596, "creado": 10597, "_week": 10598, "ench": 10599, "mascul": 10600, "principales": 10601, "territor": 10602, "compar": 10603, "n\u00e4chste": 10604, "soll": 10605, "ouri": 10606, "r\u00e4": 10607, "seit": 10608, "esehen": 10609, "alters": 10610, "seinem": 10611, "einfach": 10612, "erkl\u00e4": 10613, "uges": 10614, "appell": 10615, "]]": 10616, "aco": 10617, "altet": 10618, "s\u00e4": 10619, "itel": 10620, "l\u00f6": 10621, "reserv": 10622, "\u201e": 10623, "f\u00fcg": 10624, "istik": 10625, "isol": 10626, "ieder": 10627, "pud": 10628, "criter": 10629, "salv": 10630, "_serv": 10631, "quello": 10632, "italiane": 10633, "igion": 10634, "mue": 10635, "ajes": 10636, "deber\u00e1": 10637, "busca": 10638, "hijo": 10639, "\u00e1nchez": 10640, "recur": 10641, "espec\u00edfico": 10642, "ertos": 10643, "cuent": 10644, "frente": 10645, "(value": 10646, "haber": 10647, "uchar": 10648, "buena": 10649, "se\u00f1": 10650, "enos": 10651, "m\u00e9t": 10652, "\u00edsticas": 10653, "ellos": 10654, "productos": 10655, "coment": 10656, "veces": 10657, "enario": 10658, "gubern": 10659, "udad": 10660, "intelig": 10661, "hist\u00f3": 10662, "reminders": 10663, "geography": 10664, "round": 10665, "impressive": 10666, "classmates": 10667, "diligently": 10668, "growing": 10669, "ajan": 10670, "expiration": 10671, "changing": 10672, "thrive": 10673, "continuing": 10674, "atmosphere": 10675, "begins": 10676, "curiosity": 10677, "ordination": 10678, "served": 10679, "norms": 10680, "expanding": 10681, "english": 10682, "restricted": 10683, "qualifications": 10684, "interviews": 10685, "renowned": 10686, "hist": 10687, "peak": 10688, "image": 10689, "complexity": 10690, "empowered": 10691, "theft": 10692, "-peer": 10693, "whole": 10694, "investigate": 10695, "uality": 10696, "updating": 10697, "equal": 10698, "remains": 10699, "reliable": 10700, "quin": 10701, "\u00a3": 10702, "locations": 10703, "ardin": 10704, "anecdotes": 10705, "enjoy": 10706, "fairness": 10707, "relevance": 10708, ".med": 10709, "presenting": 10710, "_list": 10711, "footprint": 10712, "soph": 10713, "higher": 10714, "engineering": 10715, "elevate": 10716, "culturally": 10717, "same": 10718, "stimulating": 10719, "atories": 10720, "\u00fd": 10721, "often": 10722, ".alt": 10723, "kim": 10724, "vigilant": 10725, "cdb": 10726, "evacuation": 10727, "desire": 10728, "three": 10729, "~": 10730, "volunteering": 10731, "striving": 10732, "supports": 10733, "federal": 10734, "spread": 10735, "fried": 10736, "azzi": 10737, "coordinated": 10738, "__________________________________": 10739, "ampa": 10740, "foreign": 10741, "nev": 10742, "-im": 10743, "aligned": 10744, "assessed": 10745, "dorf": 10746, "funds": 10747, "analyzed": 10748, "burn": 10749, "completing": 10750, "ownership": 10751, "rub": 10752, "autonomy": 10753, "cheduled": 10754, "agh": 10755, "practicing": 10756, "openness": 10757, "overcome": 10758, "strengthening": 10759, "economics": 10760, "transformation": 10761, "feeling": 10762, "multi": 10763, "expressing": 10764, "uating": 10765, "------------------------------": 10766, "controls": 10767, "treated": 10768, "lice": 10769, "mother": 10770, "thr": 10771, "ourselves": 10772, "tradition": 10773, "occupational": 10774, "kid": 10775, "withdraw": 10776, "investments": 10777, "encrypt": 10778, "sun": 10779, "chia": 10780, "anny": 10781, "aint": 10782, "\ud83d\udd52": 10783, "ising": 10784, "stant": 10785, "assured": 10786, "illness": 10787, "\ud83d\udcf8": 10788, "\ud83e\uddb7": 10789, "\ud83d\udcf7": 10790, "populations": 10791, ".ma": 10792, "kil": 10793, "emerging": 10794, "targeting": 10795, "companies": 10796, "amendments": 10797, "residing": 10798, "atch": 10799, "stricter": 10800, "specializing": 10801, "determine": 10802, "ution": 10803, "ilda": 10804, "----------------------------": 10805, "-training": 10806, "cryptocurrency": 10807, "athletes": 10808, "fbe": 10809, "landlord": 10810, "speaking": 10811, "-disc": 10812, "ashion": 10813, "-no": 10814, "ems": 10815, "applies": 10816, "injured": 10817, "trusts": 10818, "(w": 10819, "bud": 10820, "facilitated": 10821, "zas": 10822, "ibel": 10823, "rish": 10824, "functioning": 10825, "sut": 10826, "drag": 10827, "acas": 10828, "ulations": 10829, "pricing": 10830, "ernet": 10831, "ping": 10832, "oure": 10833, "vict": 10834, "combined": 10835, "ayar": 10836, "img": 10837, "lys": 10838, "progressive": 10839, "kie": 10840, "offense": 10841, "jee": 10842, "ufficient": 10843, "honor": 10844, "suggesting": 10845, "pul": 10846, "interference": 10847, "integrate": 10848, "visualization": 10849, "rand": 10850, "managed": 10851, "apk": 10852, "large": 10853, "appeal": 10854, "ched": 10855, "erman": 10856, "unded": 10857, "iated": 10858, "_sh": 10859, "major": 10860, "uper": 10861, "snacks": 10862, "umo": 10863, "_need": 10864, "ined": 10865, ".ba": 10866, "tribute": 10867, "\u00e3": 10868, ".sc": 10869, "tale": 10870, "endor": 10871, "physician": 10872, "algo": 10873, "sperm": 10874, "injuries": 10875, "xlsx": 10876, "achi": 10877, "_en": 10878, "olerance": 10879, "umm": 10880, "rine": 10881, "olas": 10882, "rollment": 10883, "ilio": 10884, "regimen": 10885, "avier": 10886, "udd": 10887, "etting": 10888, "infl": 10889, "(time": 10890, "(date": 10891, "_requests": 10892, "tlement": 10893, ".an": 10894, "preced": 10895, "isdiction": 10896, "bard": 10897, "stadt": 10898, "_percentage": 10899, "amine": 10900, "markets": 10901, "tray": 10902, "odel": 10903, "ugs": 10904, "cust": 10905, "_conf": 10906, "complic": 10907, "langs": 10908, "ented": 10909, "kans": 10910, "-en": 10911, "oten": 10912, "irsch": 10913, "tweet": 10914, "zag": 10915, "arent": 10916, "_nl": 10917, "startdate": 10918, "owl": 10919, "*b": 10920, "appar": 10921, "*t": 10922, "autonom": 10923, "aniel": 10924, "quipment": 10925, "orna": 10926, "eming": 10927, "_bias": 10928, "ilot": 10929, "\"**": 10930, "mig": 10931, "naires": 10932, "ters": 10933, "schem": 10934, "uber": 10935, "oined": 10936, "leider": 10937, "uner": 10938, "ennes": 10939, "premium": 10940, "abit": 10941, "cardi": 10942, "postalcode": 10943, "string": 10944, "atisch": 10945, "eron": 10946, "ause": 10947, "atan": 10948, "orsi": 10949, "anka": 10950, "ctr": 10951, "pii": 10952, "sep": 10953, "cba": 10954, "ditor": 10955, "donn\u00e9": 10956, "coup": 10957, "scient": 10958, "_cur": 10959, "examiner": 10960, "\u00e9tude": 10961, "tou": 10962, "-ci": 10963, "s\u00e9lection": 10964, "'<": 10965, "nces": 10966, "disp": 10967, "pense": 10968, "d\u00e9m": 10969, "pi\u00e8": 10970, "impressions": 10971, "oken": 10972, "diff\u00e9rence": 10973, "\u00ab": 10974, "illy": 10975, "jeune": 10976, "unos": 10977, "rema": 10978, "amment": 10979, "dispens": 10980, "sau": 10981, "produits": 10982, "exig": 10983, "\u00eet": 10984, "territorial": 10985, "\u00e9taient": 10986, "agit": 10987, "lec": 10988, "celui": 10989, "plet": 10990, "oints": 10991, "attach": 10992, "\\xe": 10993, "sexe": 10994, "activit\u00e9": 10995, ",,": 10996, "sang": 10997, "b\u00e9": 10998, "uisse": 10999, "_norm": 11000, "arbit": 11001, "empl": 11002, "_permission": 11003, "mach": 11004, "seinen": 11005, "ahlen": 11006, "inhab": 11007, "gegen\u00fcber": 11008, "geist": 11009, "eigenen": 11010, "w\u00fcrde": 11011, "gilt": 11012, "gr\u00fcnde": 11013, "\u00e4lle": 11014, "t\u00e4": 11015, "urses": 11016, "m\u00fcnchen": 11017, "-tech": 11018, "utzt": 11019, ".def": 11020, ".<": 11021, "letz": 11022, "\u00f6rper": 11023, "ignor": 11024, "_nr": 11025, "\u00fcnst": 11026, "gab": 11027, "geh\u00f6rt": 11028, "_profile": 11029, "_needed": 11030, "soil": 11031, "*****": 11032, "occas": 11033, "ologna": 11034, "incred": 11035, "iniz": 11036, "posto": 11037, "molest": 11038, "sessuali": 11039, "molt": 11040, "pagamento": 11041, "ologi": 11042, "ificate": 11043, "americ": 11044, "`${": 11045, "}`": 11046, "superior": 11047, "grandi": 11048, "conocer": 11049, "hecho": 11050, "ser\u00eda": 11051, "permite": 11052, "despu\u00e9s": 11053, "cient\u00edf": 11054, "tendr": 11055, "encuentra": 11056, "tendr\u00e1": 11057, "ocas": 11058, "l\u00edder": 11059, "m\u00f3": 11060, "falta": 11061, "texto": 11062, "debido": 11063, "rollo": 11064, "ucion": 11065, "iniciar": 11066, "encion": 11067, "osos": 11068, "n\u00fa": 11069, "\u00f3m": 11070, "p\u00e9rdida": 11071, "amigos": 11072, "detr": 11073, "fuer": 11074, "campa\u00f1a": 11075, "acho": 11076, "iples": 11077, "reo": 11078, "ablo": 11079, "hos": 11080, "impactful": 11081, "embracing": 11082, "biology": 11083, "icient": 11084, "adaptation": 11085, "selected": 11086, "clearly": 11087, "ussed": 11088, "outdoor": 11089, "balancing": 11090, "-rounded": 11091, "eager": 11092, "izons": 11093, "powerful": 11094, "meaning": 11095, "'+": 11096, "maximum": 11097, "]),": 11098, "gil": 11099, "cant": 11100, "-site": 11101, "alongside": 11102, "lined": 11103, ".org": 11104, "featuring": 11105, "enthusiasts": 11106, "closer": 11107, "characters": 11108, "urgency": 11109, "fulfilling": 11110, "safer": 11111, "erin": 11112, "-notch": 11113, "blend": 11114, "(q": 11115, "resh": 11116, "install": 11117, "paths": 11118, "[a": 11119, "appreciation": 11120, "hausen": 11121, "backdrop": 11122, "wish": 11123, "phas": 11124, "astr": 11125, "applying": 11126, "_contract": 11127, "showcases": 11128, "jie": 11129, "lacks": 11130, "touched": 11131, "cues": 11132, "david": 11133, "acknowledges": 11134, "uki": 11135, "noc": 11136, "eligible": 11137, "tournament": 11138, "_forms": 11139, "_on": 11140, "_performance": 11141, "representatives": 11142, "ultimately": 11143, ".sm": 11144, "ugh": 11145, "lil": 11146, "anel": 11147, "capture": 11148, "recommending": 11149, "cation": 11150, "icense": 11151, "custom": 11152, "fruits": 11153, "periods": 11154, "posium": 11155, "internship": 11156, "exams": 11157, "yme": 11158, "brighter": 11159, "amazing": 11160, "nesday": 11161, "ursday": 11162, "movement": 11163, "visa": 11164, "graduate": 11165, "unfolded": 11166, "unw": 11167, "distinguished": 11168, "enthusiastic": 11169, "fmt": 11170, "gifted": 11171, "listen": 11172, "yna": 11173, "chair": 11174, "selection": 11175, "arding": 11176, "deepen": 11177, "glad": 11178, "bond": 11179, "continuously": 11180, "fertility": 11181, "alth": 11182, ".)": 11183, "stimulation": 11184, "icipants": 11185, "\u00e4mp": 11186, "veget": 11187, "nuts": 11188, "validated": 11189, "eyer": 11190, "ensation": 11191, "odor": 11192, "-br": 11193, "bdb": 11194, "binding": 11195, "ondon": 11196, "linea": 11197, "undergo": 11198, "means": 11199, "minimize": 11200, "bog": 11201, "segments": 11202, "ifying": 11203, "employed": 11204, "oda": 11205, "snack": 11206, "arise": 11207, "afen": 11208, "isks": 11209, "conferences": 11210, "doing": 11211, "\u2695": 11212, "canal": 11213, "irth": 11214, "'</": 11215, "extensive": 11216, "restructuring": 11217, "angelo": 11218, "incentives": 11219, "[l": 11220, "performed": 11221, "habitat": 11222, "xxxx": 11223, "examining": 11224, "competitive": 11225, "inic": 11226, "comparative": 11227, "ipv": 11228, "customs": 11229, "map": 11230, "helm": 11231, "lord": 11232, "push": 11233, "icket": 11234, "respected": 11235, "promotes": 11236, "dbe": 11237, "mining": 11238, "peace": 11239, "amu": 11240, "responding": 11241, "decrease": 11242, "bias": 11243, "afi": 11244, "idis": 11245, "------------------------------------------------------------------------------------------------": 11246, "otal": 11247, "utilities": 11248, "sow": 11249, "yar": 11250, "respecting": 11251, "[g": 11252, "attempts": 11253, "aby": 11254, "reet": 11255, "k\u00f6": 11256, "indicates": 11257, "kes": 11258, ".]": 11259, "]**": 11260, "yah": 11261, "[d": 11262, "muscle": 11263, "correlation": 11264, "comfortable": 11265, "uran": 11266, "leave": 11267, "independent": 11268, "reward": 11269, "ktor": 11270, "-lo": 11271, "consistency": 11272, "names": 11273, "competence": 11274, "breath": 11275, "qry": 11276, ".mit": 11277, "reveals": 11278, "unconscious": 11279, "outs": 11280, "asar": 11281, "quent": 11282, "influences": 11283, "aab": 11284, "multicultural": 11285, "shar": 11286, "iban": 11287, "odge": 11288, "_conditions": 11289, "plot": 11290, "manipulation": 11291, "obstacles": 11292, "fost": 11293, "ategic": 11294, "inez": 11295, "mans": 11296, "editor": 11297, "references": 11298, "deserve": 11299, "centers": 11300, "ouse": 11301, "ouv": 11302, "rick": 11303, "uated": 11304, "_res": 11305, "guided": 11306, "\":{\"": 11307, "-te": 11308, "ibo": 11309, "zem": 11310, "gift": 11311, "hotmail": 11312, "_role": 11313, "ault": 11314, "_access": 11315, "prohibited": 11316, "pets": 11317, "--------------": 11318, "fiscal": 11319, "dol": 11320, "_staff": 11321, "arin": 11322, "ogram": 11323, "infection": 11324, "boy": 11325, "anh": 11326, "phot": 11327, "utc": 11328, "liquid": 11329, "lap": 11330, ".mas": 11331, "olicy": 11332, "accepted": 11333, "itures": 11334, "mek": 11335, "ims": 11336, "_review": 11337, "_chat": 11338, "(second": 11339, "cosmic": 11340, "traction": 11341, "_index": 11342, "\ud83d\ude80": 11343, ".lab": 11344, "perc": 11345, "intrig": 11346, "psychotic": 11347, "olan": 11348, "erry": 11349, "bing": 11350, "pis": 11351, ".ser": 11352, "_ref": 11353, "-fl": 11354, ")...": 11355, "cess": 11356, "zell": 11357, "theid": 11358, "ople": 11359, "utrecht": 11360, "uiten": 11361, "onds": 11362, "_age": 11363, "anders": 11364, "ruitment": 11365, "anon": 11366, "chema": 11367, "ilst": 11368, "loe": 11369, "ipt": 11370, "route": 11371, "weer": 11372, "ype": 11373, "thuis": 11374, "eters": 11375, "verse": 11376, "...\",": 11377, "[]": 11378, "voc": 11379, "scala": 11380, "_budget": 11381, "dish": 11382, "compens": 11383, "aiser": 11384, "://": 11385, "sud": 11386, "-system": 11387, "ece": 11388, "[e": 11389, "paired": 11390, "oya": 11391, "typ": 11392, "gments": 11393, "_note": 11394, "\u00e4hl": 11395, "uida": 11396, "critic": 11397, "ochen": 11398, "\ud83c\udf08": 11399, "tran": 11400, "anomal": 11401, "initi": 11402, "ngthen": 11403, "elly": 11404, "rien": 11405, "alin": 11406, "\u00e1g": 11407, "_des": 11408, "dog": 11409, "toi": 11410, "(l": 11411, "_ind": 11412, "leh": 11413, "hrs": 11414, "_function": 11415, "pio": 11416, "cit\u00e9": 11417, "pr\u00e9sent\u00e9": 11418, "d\u00e9sormais": 11419, "nombres": 11420, "r\u00e9alis\u00e9": 11421, "sante": 11422, "musique": 11423, "sort": 11424, "cr\u00e9ation": 11425, "\u2019": 11426, "ulant": 11427, "enaire": 11428, "pass\u00e9": 11429, "[x": 11430, "simil": 11431, "alement": 11432, "lements": 11433, "grandes": 11434, "sembl": 11435, "am\u00e9liorer": 11436, "propos\u00e9": 11437, "iments": 11438, "\u00e9ra": 11439, "_sp": 11440, "frais": 11441, "persist": 11442, "rapidement": 11443, "p\u00e9riode": 11444, "unsch": 11445, "(tr": 11446, "bord": 11447, "'on": 11448, "s\u00fb": 11449, "e\u0301s": 11450, "uite": 11451, "chances": 11452, "l\u00e9e": 11453, "choix": 11454, "\"`": 11455, "definition": 11456, "tun": 11457, "agr\u00e9": 11458, "roph": 11459, "entin": 11460, "\u00fchl": 11461, "_background": 11462, "obsession": 11463, "commenc": 11464, "contempor": 11465, "perience": 11466, "-learning": 11467, "nid": 11468, "oke": 11469, "domest": 11470, "tones": 11471, "_act": 11472, "pause": 11473, "---------------": 11474, "zew": 11475, "sieht": 11476, "ulet": 11477, "sondern": 11478, "*k": 11479, "elts": 11480, "plex": 11481, "/ms": 11482, "-link": 11483, "ftware": 11484, "kart": 11485, "extern": 11486, "usta": 11487, "finder": 11488, "`\\": 11489, "produk": 11490, "={": 11491, "-vers": 11492, ";br": 11493, "iced": 11494, "medal": 11495, "grave": 11496, "mando": 11497, "spir": 11498, "icare": 11499, "prelim": 11500, "pena": 11501, "conto": 11502, "elemento": 11503, "videog": 11504, "odo": 11505, "dose": 11506, "idian": 11507, "amore": 11508, "vivo": 11509, "espos": 11510, "increment": 11511, "egrity": 11512, "\ud83c\uddee": 11513, "\u00edcul": 11514, "deber": 11515, "unidad": 11516, "a\u00fan": 11517, "utivo": 11518, "ellidos": 11519, "presup": 11520, "ursos": 11521, "muchos": 11522, "ctica": 11523, "m\u00ed": 11524, "funciones": 11525, "olucion": 11526, "utilizado": 11527, "prueba": 11528, "isos": 11529, "empez": 11530, "generado": 11531, "************************": 11532, "planes": 11533, "segundo": 11534, "espect": 11535, "negoci": 11536, "m\u00fa": 11537, "valores": 11538, "desp": 11539, ".prof": 11540, "';": 11541, "atr\u00e1s": 11542, "wyn": 11543, "quizzes": 11544, "undoubtedly": 11545, "upgrade": 11546, "compliant": 11547, "paramount": 11548, "enjoyable": 11549, "creators": 11550, "respectfully": 11551, "traditions": 11552, "broaden": 11553, "enrichment": 11554, ",b": 11555, ",s": 11556, ",g": 11557, "upo": 11558, "breaking": 11559, "fades": 11560, "xia": 11561, "bright": 11562, "arranged": 11563, "zym": 11564, "explanations": 11565, "refreshing": 11566, "pection": 11567, "essaging": 11568, "liaison": 11569, "c\u00e9": 11570, "pursuits": 11571, "giving": 11572, "maur": 11573, "ahir": 11574, "oped": 11575, "timestamps": 11576, "creates": 11577, "clicking": 11578, "tricks": 11579, "theoretical": 11580, "maintained": 11581, "(x": 11582, "honesty": 11583, "upgrades": 11584, "threats": 11585, "convenient": 11586, "ners": 11587, "encing": 11588, "lene": 11589, "estimated": 11590, "maximize": 11591, "arat": 11592, "cultivating": 11593, "istration": 11594, "embody": 11595, "catering": 11596, "ght": 11597, "chemistry": 11598, "suspension": 11599, "lifelong": 11600, "*(": 11601, "edition": 11602, "ilingual": 11603, "house": 11604, "aky": 11605, "containing": 11606, "mani": 11607, "happy": 11608, "referenced": 11609, "learner": 11610, "displaying": 11611, "damages": 11612, "utions": 11613, "enjoyed": 11614, "ricula": 11615, "acks": 11616, "unities": 11617, "calming": 11618, "athi": 11619, "scene": 11620, "swift": 11621, "unusual": 11622, "quickly": 11623, "gst": 11624, "precise": 11625, "proof": 11626, "try": 11627, "treat": 11628, "vegetables": 11629, "cultivate": 11630, "football": 11631, "endurance": 11632, "actical": 11633, "located": 11634, "ulating": 11635, "owy": 11636, "/in": 11637, "definitely": 11638, "load": 11639, "ashi": 11640, "rewarding": 11641, "establishment": 11642, "kay": 11643, "organizers": 11644, "ework": 11645, "communicated": 11646, "riterion": 11647, "hte": 11648, "progressed": 11649, "secondary": 11650, "auditing": 11651, "[z": 11652, "demeanor": 11653, "\"\\\"": 11654, "firsthand": 11655, "iplinary": 11656, "opathy": 11657, "supplements": 11658, "hair": 11659, "bri": 11660, "interdisciplinary": 11661, "preserving": 11662, "described": 11663, "dress": 11664, "iki": 11665, "amor": 11666, "anner": 11667, "czy": 11668, "osl": 11669, "<int": 11670, "pharmaceutical": 11671, "ually": 11672, "ether": 11673, "\u00f6h": 11674, ".ak": 11675, "edin": 11676, "\u00e7o": 11677, "resilient": 11678, "formally": 11679, "separate": 11680, "reply": 11681, "oglob": 11682, "logy": 11683, "_prom": 11684, "alu": 11685, "spreading": 11686, "agnostic": 11687, "carried": 11688, "commenter": 11689, "sustained": 11690, "disclose": 11691, "-ra": 11692, "abre": 11693, ".pl": 11694, "caused": 11695, "pite": 11696, "procurement": 11697, "\ud83d\udc68": 11698, "\ud83d\udc96": 11699, "urvey": 11700, "guiding": 11701, "auditory": 11702, "-host": 11703, "apan": 11704, "provisions": 11705, "bodies": 11706, "initiating": 11707, "lek": 11708, "iction": 11709, "isser": 11710, "ruptcy": 11711, "eut": 11712, "inheritance": 11713, "adverse": 11714, "asy": 11715, "corresponding": 11716, "ulated": 11717, "complaint": 11718, "ogh": 11719, "might": 11720, "delay": 11721, "phishing": 11722, "uments": 11723, "obtained": 11724, "shortly": 11725, "[user": 11726, "bases": 11727, "spanning": 11728, "tribal": 11729, "properties": 11730, "harmony": 11731, "sales": 11732, "specifically": 11733, "losing": 11734, "responded": 11735, "sell": 11736, "hiring": 11737, "appe": 11738, "photography": 11739, "liabilities": 11740, "ilan": 11741, "directive": 11742, "judgment": 11743, "alia": 11744, "consumers": 11745, ".go": 11746, "_as": 11747, "----------------------------------------------------------------": 11748, "hid": 11749, "witnesses": 11750, "forest": 11751, "operate": 11752, "responds": 11753, "mix": 11754, "[q": 11755, "erview": 11756, "proposing": 11757, "serious": 11758, "}),": 11759, "reviewer": 11760, "istics": 11761, "integrated": 11762, "-confidence": 11763, "writer": 11764, "iks": 11765, "reinforce": 11766, "coordinates": 11767, "treating": 11768, "andro": 11769, "quantitative": 11770, "forces": 11771, "iji": 11772, "stemming": 11773, "examine": 11774, "disasters": 11775, "ife": 11776, ".cam": 11777, ".om": 11778, "restr": 11779, "disturbances": 11780, "sek": 11781, "traits": 11782, "aldi": 11783, "aforementioned": 11784, "discomfort": 11785, "administered": 11786, "stitute": 11787, "exhibiting": 11788, "demographics": 11789, "odynamic": 11790, "reactions": 11791, "avel": 11792, "_decision": 11793, "reh": 11794, "starts": 11795, "'i": 11796, "ubs": 11797, "<b": 11798, "ustainability": 11799, "mom": 11800, "abelle": 11801, "recap": 11802, "awy": 11803, "tact": 11804, "administrators": 11805, "tle": 11806, "iya": 11807, "adoption": 11808, "*this": 11809, "oti": 11810, "_dead": 11811, "rell": 11812, "pid": 11813, "nej": 11814, "gym": 11815, "ilm": 11816, "tek": 11817, "cool": 11818, "inoa": 11819, "omega": 11820, ".pet": 11821, "oods": 11822, "ocado": 11823, "minute": 11824, "uba": 11825, "matte": 11826, "fieldset": 11827, ".mu": 11828, "wound": 11829, "vaccine": 11830, "east": 11831, "[o": 11832, "erva": 11833, "akk": 11834, "_screen": 11835, "vil": 11836, "aac": 11837, ".fl": 11838, "_reference": 11839, "letion": 11840, "rts": 11841, "hardt": 11842, "avenue": 11843, "olini": 11844, "winter": 11845, "ills": 11846, "insured": 11847, "enes": 11848, "_process": 11849, "igration": 11850, "oku": 11851, "_cover": 11852, "debris": 11853, "satellites": 11854, "atel": 11855, "bonding": 11856, "atk": 11857, "syndrome": 11858, "roman": 11859, "ndo": 11860, "cut": 11861, "cognition": 11862, "\u00fcs": 11863, "gradual": 11864, "nth": 11865, "idente": 11866, "esteem": 11867, "osti": 11868, "-per": 11869, "olina": 11870, "eec": 11871, "_st": 11872, "describe": 11873, "hyper": 11874, "accident": 11875, "sov": 11876, "_use": 11877, "diploma": 11878, "\u00ebr": 11879, "iben": 11880, "<j": 11881, ")?": 11882, "ikan": 11883, "tat": 11884, "angers": 11885, "dre": 11886, "eselect": 11887, "oup": 11888, "inho": 11889, "paar": 11890, "ulos": 11891, "-co": 11892, "haz": 11893, ".ur": 11894, "grav": 11895, "oming": 11896, "avings": 11897, "emy": 11898, "edge": 11899, "iena": 11900, "tess": 11901, ".on": 11902, "aho": 11903, "_patient": 11904, "twee": 11905, "_coverage": 11906, "influenza": 11907, "_metrics": 11908, "dus": 11909, "_admin": 11910, "-management": 11911, "kort": 11912, "-\"": 11913, ".pol": 11914, "tte": 11915, ")/": 11916, "urpose": 11917, "-law": 11918, "eking": 11919, "nda": 11920, "unj": 11921, "istes": 11922, "moz": 11923, "cris": 11924, "cheiden": 11925, "rex": 11926, "v\u00e9": 11927, "illon": 11928, "manuel": 11929, "sos": 11930, "achelor": 11931, "_eng": 11932, "(j": 11933, "<l": 11934, "_ment": 11935, "*s": 11936, "abstract": 11937, "ionate": 11938, "iator": 11939, "rej": 11940, "lobby": 11941, "_completion": 11942, "elek": 11943, "exploit": 11944, "evasion": 11945, "ihn": 11946, "agra": 11947, "ossa": 11948, "ellite": 11949, "aspir": 11950, "umat": 11951, "euro": 11952, "apprent": 11953, "meilleurs": 11954, "'elle": 11955, "possibilit\u00e9": 11956, "v\u00e9ritable": 11957, "d\u00e9couvert": 11958, "accr": 11959, ".php": 11960, "compos": 11961, "celle": 11962, "_util": 11963, "r\u00e9gion": 11964, "quip": 11965, "haut": 11966, "\u00e9cole": 11967, "commune": 11968, "amental": 11969, "iens": 11970, "b\u00e2t": 11971, "histoire": 11972, "juste": 11973, "italian": 11974, "autour": 11975, "uniqu": 11976, "surgery": 11977, "catastrophe": 11978, "-info": 11979, "isations": 11980, "gis": 11981, "'\u00e9tait": 11982, "belle": 11983, "ernel": 11984, "fais": 11985, "petite": 11986, "g\u00e9n\u00e9ral": 11987, "me\u0301dica": 11988, "conclusions": 11989, "fils": 11990, "rencontrer": 11991, "dilig": 11992, "[w": 11993, "nume\u0301ro": 11994, "arius": 11995, "rait": 11996, "plusieurs": 11997, "r\u00e9ussi": 11998, "donc": 11999, "claration": 12000, "animate": 12001, "avy": 12002, "at\u00e9g": 12003, "-non": 12004, "salle": 12005, "iais": 12006, "alli": 12007, "inea": 12008, ".der": 12009, "manip": 12010, "_pr": 12011, "sexo": 12012, "udiantes": 12013, "irr": 12014, "graves": 12015, "repr": 12016, "#####": 12017, "mund": 12018, "deposit": 12019, "plage": 12020, "arial": 12021, "resc": 12022, "_points": 12023, "_tra": 12024, "::_": 12025, "spatial": 12026, "bla": 12027, "_length": 12028, "h\u00e4nge": 12029, "fakt": 12030, "buch": 12031, "aterial": 12032, "avers": 12033, "aupt": 12034, "kein": 12035, "bleibt": 12036, "xis": 12037, "k\u00e4": 12038, "\u00f6ren": 12039, "bst": 12040, "_disc": 12041, "j\u00e4hr": 12042, "wollen": 12043, "-service": 12044, "atern": 12045, "absolut": 12046, "rega": 12047, "gte": 12048, "gro\u00dfen": 12049, "etwa": 12050, ">(\"": 12051, "-un": 12052, "/&": 12053, ";</": 12054, "umin": 12055, "[pos": 12056, "ragazzi": 12057, "rico": 12058, "propor": 12059, "dice": 12060, "infer": 12061, "incid": 12062, "\ud83c\udffb": 12063, "propriet": 12064, "interior": 12065, "************************************************": 12066, "*******": 12067, "istema": 12068, "aer": 12069, "ilos": 12070, "_ter": 12071, "\\data": 12072, "siendo": 12073, "decisi\u00f3n": 12074, "utos": 12075, "muchas": 12076, "funcion": 12077, "taller": 12078, "soluci\u00f3n": 12079, "yecto": 12080, "distancia": 12081, "junto": 12082, "\u00faa": 12083, "pasado": 12084, "\u00edf": 12085, "amentos": 12086, "grupos": 12087, "comercial": 12088, "mism": 12089, "m\u00f3vil": 12090, "cuando": 12091, "ambos": 12092, "misi\u00f3n": 12093, "generar": 12094, "\u00e1ndez": 12095, "\u00edculos": 12096, "opol": 12097, "per\u00edodo": 12098, "cion": 12099, "humano": 12100, "producci\u00f3n": 12101, "upal": 12102, "antig": 12103, "consec": 12104, "empleado": 12105, "&oacute": 12106, "\u00fameros": 12107, "'},": 12108, "components": 12109, "/><": 12110, "cultures": 12111, "friends": 12112, "tolerance": 12113, "opens": 12114, "globe": 12115, "alice": 12116, ",h": 12117, "fou": 12118, "council": 12119, "guarantee": 12120, "helps": 12121, "seasoned": 12122, "felt": 12123, "congratulations": 12124, "arth": 12125, "flexible": 12126, "responsibly": 12127, "missions": 12128, "ained": 12129, "iting": 12130, "conta": 12131, "itory": 12132, "precautions": 12133, "angle": 12134, "uted": 12135, "several": 12136, "passwords": 12137, "recognizing": 12138, "avoiding": 12139, "entering": 12140, "cloud": 12141, "deemed": 12142, "went": 12143, "_li": 12144, "cultiv": 12145, "navigation": 12146, "oucher": 12147, "poll": 12148, "constraints": 12149, "wild": 12150, "biodiversity": 12151, "guests": 12152, "kills": 12153, "rein": 12154, "uggested": 12155, "setup": 12156, "sincerely": 12157, ".min": 12158, "bound": 12159, "pack": 12160, "fers": 12161, "grading": 12162, "groundbreaking": 12163, "adapting": 12164, "hood": 12165, "certify": 12166, "-the": 12167, "enhancements": 12168, "optimization": 12169, "season": 12170, "-ng": 12171, "revisions": 12172, "thriving": 12173, "_null": 12174, "become": 12175, "grounding": 12176, "performing": 12177, "awe": 12178, "increasing": 12179, "amon": 12180, "tas": 12181, "shelter": 12182, "exemplary": 12183, "suitable": 12184, "demographic": 12185, "dance": 12186, "trying": 12187, "watching": 12188, "uesday": 12189, "iday": 12190, "opi": 12191, "eid": 12192, "encies": 12193, "rental": 12194, "despite": 12195, "residence": 12196, "}.": 12197, "(note": 12198, "finding": 12199, "concerned": 12200, "tah": 12201, "pivotal": 12202, "atively": 12203, "flor": 12204, "capable": 12205, "beginning": 12206, "obtain": 12207, "confirming": 12208, "lane": 12209, "distributed": 12210, "jax": 12211, "-minded": 12212, "alien": 12213, "conte": 12214, "calling": 12215, "-led": 12216, "wood": 12217, "_personal": 12218, "directed": 12219, "calendars": 12220, "gentle": 12221, "mutually": 12222, "-ev": 12223, "ppo": 12224, "yas": 12225, "said": 12226, "-ex": 12227, "-one": 12228, "called": 12229, "juvenile": 12230, "donation": 12231, "transplantation": 12232, "gathering": 12233, "_priv": 12234, "persever": 12235, "fiber": 12236, "register": 12237, "manufacturing": 12238, "promising": 12239, "organic": 12240, "friday": 12241, "solidarity": 12242, ".sav": 12243, "gmail": 12244, "ustainable": 12245, "recommends": 12246, "digest": 12247, "chemical": 12248, "protective": 12249, "ppe": 12250, "pline": 12251, "combination": 12252, ".nd": 12253, "\ud83d\udd79": 12254, "intense": 12255, "thal": 12256, ">$": 12257, "lifestyles": 12258, "citing": 12259, "portion": 12260, "featured": 12261, "usan": 12262, "ilk": 12263, "operational": 12264, "meticulously": 12265, "\u00fcm": 12266, "safely": 12267, "rehab": 12268, "empt": 12269, "unless": 12270, "akers": 12271, "inspiration": 12272, "meticulous": 12273, "izations": 12274, "hek": 12275, "css": 12276, "compromised": 12277, "brush": 12278, "extraction": 12279, "goes": 12280, "electronic": 12281, "governmental": 12282, "heated": 12283, "iating": 12284, "cid": 12285, "corporation": 12286, "completely": 12287, "persuasion": 12288, "hash": 12289, "consumption": 12290, "cycle": 12291, "ahu": 12292, "later": 12293, "enny": 12294, "emma": 12295, "commander": 12296, "alleged": 12297, "origin": 12298, "experimentation": 12299, "orio": 12300, "cmp": 12301, "commits": 12302, "membership": 12303, ".vis": 12304, "skilled": 12305, "divorce": 12306, "eted": 12307, "payments": 12308, "juris": 12309, "reaches": 12310, ".ac": 12311, "whom": 12312, ".mon": 12313, "produce": 12314, "plaintiff": 12315, "anticipate": 12316, "abin": 12317, "pty": 12318, "cing": 12319, "walk": 12320, "pollution": 12321, "economy": 12322, "defamation": 12323, "illegal": 12324, "interpretations": 12325, "fraudulent": 12326, "regions": 12327, "bout": 12328, "eve": 12329, "-dr": 12330, "installation": 12331, "installations": 12332, "character": 12333, "\u00fck": 12334, "notified": 12335, "}).": 12336, "allotted": 12337, "ply": 12338, "resonate": 12339, "entina": 12340, "-root": 12341, "grasp": 12342, "tendencies": 12343, "grp": 12344, "executive": 12345, "ellig": 12346, ".pi": 12347, "preference": 12348, "omo": 12349, "abal": 12350, "igmat": 12351, "_expect": 12352, "]>": 12353, "competent": 12354, "eux": 12355, "heightened": 12356, "psyche": 12357, "themes": 12358, "words": 12359, "mapping": 12360, "operative": 12361, "undergoing": 12362, "aches": 12363, "lower": 12364, "bour": 12365, "planned": 12366, "diagnosed": 12367, "ulsive": 12368, "psz": 12369, "strain": 12370, "ordan": 12371, "tap": 12372, "named": 12373, "vim": 12374, "_firstname": 12375, "(y": 12376, "plane": 12377, "gfx": 12378, "seating": 12379, "omic": 12380, "anie": 12381, "\u00e9n\u00e9": 12382, "joins": 12383, "ustomer": 12384, "enef": 12385, "allowed": 12386, "uniforms": 12387, "ometric": 12388, "umann": 12389, "fly": 12390, "exchanging": 12391, "inq": 12392, "_limit": 12393, "_block": 12394, "respondent": 12395, "gay": 12396, "earnings": 12397, "moved": 12398, "issuer": 12399, "ups": 12400, "york": 12401, "bob": 12402, "attachment": 12403, "_ac": 12404, "wald": 12405, "<n": 12406, ".pan": 12407, "ump": 12408, "investigator": 12409, "illing": 12410, "aty": 12411, "acob": 12412, "supervise": 12413, "aret": 12414, "sle": 12415, "leon": 12416, "itch": 12417, "hend": 12418, "peoples": 12419, "commission": 12420, "income": 12421, "lawyer": 12422, "txn": 12423, ".en": 12424, ".ci": 12425, "renew": 12426, "rote": 12427, "boundary": 12428, "iene": 12429, ".des": 12430, "wolf": 12431, "hospitality": 12432, "ince": 12433, "opy": 12434, "jew": 12435, "-bar": 12436, "olu": 12437, "specifying": 12438, "eric": 12439, "herence": 12440, "depressive": 12441, "umatic": 12442, "lessness": 12443, "-cl": 12444, "_be": 12445, "readonly": 12446, "badge": 12447, "recurrent": 12448, "isp": 12449, "_q": 12450, "ogr": 12451, "inations": 12452, "psychiatrist": 12453, "abad": 12454, "ichi": 12455, "itzer": 12456, "intensive": 12457, "ermo": 12458, "},{\"": 12459, "[p": 12460, "ictions": 12461, "imir": 12462, "iev": 12463, "/z": 12464, "kern": 12465, "kab": 12466, "dagen": 12467, "genres": 12468, "aute": 12469, "mill": 12470, "functional": 12471, "authentic": 12472, ".val": 12473, "avar": 12474, "obil": 12475, "jec": 12476, "enddate": 12477, "mini": 12478, "upro": 12479, "mpi": 12480, "anged": 12481, "recept": 12482, "stoff": 12483, "_members": 12484, "dome": 12485, "ainer": 12486, "tok": 12487, "esthes": 12488, "acz": 12489, "dge": 12490, "lus": 12491, "jim": 12492, "_fin": 12493, "uste": 12494, "jag": 12495, "iets": 12496, "qed": 12497, "fos": 12498, "}:": 12499, "acio": 12500, "tings": 12501, "tenants": 12502, "hind": 12503, "oit": 12504, "riminal": 12505, "aml": 12506, "apon": 12507, "hern": 12508, "venues": 12509, "rena": 12510, "-he": 12511, "pret": 12512, "essions": 12513, ",p": 12514, "<option": 12515, "rav": 12516, "rende": 12517, "vern": 12518, "oning": 12519, "onor": 12520, "lena": 12521, "isan": 12522, "actic": 12523, "isor": 12524, "hti": 12525, "quit": 12526, "ibration": 12527, "blk": 12528, ".has": 12529, "sch\u00f6": 12530, "asma": 12531, ".reg": 12532, "omed": 12533, "dict": 12534, "olk": 12535, "nergie": 12536, "fail": 12537, "igm": 12538, "utilis\u00e9": 12539, "reven": 12540, "aupr\u00e8s": 12541, "quat": 12542, "haute": 12543, "\u00e8les": 12544, "pourquoi": 12545, "weld": 12546, "fran\u00e7ais": 12547, "\u00f4le": 12548, "emploi": 12549, "facile": 12550, "admir": 12551, "\\`": 12552, "calend": 12553, "_minutes": 12554, "ivit\u00e9": 12555, "_ch": 12556, ".bus": 12557, "_rec": 12558, "iquement": 12559, "strat": 12560, "advers": 12561, "achat": 12562, "valeurs": 12563, "am\u00e9li": 12564, "passer": 12565, "alors": 12566, "azar": 12567, "_\"": 12568, "st\u00e4r": 12569, "d\u00e9j\u00e0": 12570, "reconnaissance": 12571, "asin": 12572, "verts": 12573, "\u00e9quipe": 12574, "agr\u00e9able": 12575, "calor": 12576, "elier": 12577, "pr\u00e9vu": 12578, "pr\u00e9cis": 12579, "se\u0301curite": 12580, "isseur": 12581, "vale": 12582, "mots": 12583, ".rad": 12584, "amation": 12585, "\"profile": 12586, "exemp": 12587, "occasion": 12588, "attentive": 12589, "ponde": 12590, "envis": 12591, "moire": 12592, "usz": 12593, "()\"": 12594, "\\s": 12595, "rente": 12596, "ertype": 12597, "metic": 12598, "\"...": 12599, "paint": 12600, "qing": 12601, "uggestion": 12602, "(ip": 12603, "reprodu": 12604, "_non": 12605, "_aut": 12606, "(pl": 12607, "\u00e4u": 12608, "mixed": 12609, "verschied": 12610, "-work": 12611, "abh\u00e4ngig": 12612, "m\u00e4nn": 12613, "denen": 12614, "kleinen": 12615, "kontrol": 12616, "personals": 12617, "ingt": 12618, "privile": 12619, "komb": 12620, "_detected": 12621, "apo": 12622, "subst": 12623, "abst": 12624, "\u00e4llt": 12625, "marine": 12626, "l\u00e4uft": 12627, "inges": 12628, "-services": 12629, "sagt": 12630, "lol": 12631, "eses": 12632, "osis": 12633, "pong": 12634, "legg": 12635, "alte": 12636, "ografia": 12637, "rette": 12638, "quisite": 12639, "probation": 12640, "giorni": 12641, "dato": 12642, "pagina": 12643, "altre": 12644, "diligent": 12645, "citt\u00e0": 12646, "italiani": 12647, "eci": 12648, "impost": 12649, "'er": 12650, "incent": 12651, "ulta": 12652, "apor": 12653, "traff": 12654, "endale": 12655, "ocom": 12656, "madre": 12657, "rito": 12658, "_vs": 12659, "costo": 12660, "_adjust": 12661, "r\u00e1pida": 12662, "neas": 12663, "sigue": 12664, "recio": 12665, "ceso": 12666, "utas": 12667, "archivo": 12668, "realiza": 12669, "configur": 12670, "aves": 12671, "ector": 12672, "visi\u00f3n": 12673, "\u00e1lez": 12674, "\u00faltimos": 12675, "tall": 12676, "\ud83d\udfe2": 12677, "propio": 12678, "podr\u00e1": 12679, "caracter\u00edsticas": 12680, "equipos": 12681, "busc": 12682, "origen": 12683, "econom\u00eda": 12684, "haya": 12685, "alg\u00fan": 12686, "medida": 12687, "transmit": 12688, "m\u00e1xima": 12689, "cr\u00edtica": 12690, "\u00famer": 12691, "abajo": 12692, "empres": 12693, "oned": 12694, "ol\u00f3gico": 12695, "ientras": 12696, "fuera": 12697, "emit": 12698, "cantidad": 12699, "checkout": 12700, ">--": 12701, "accessed": 12702, "learned": 12703, "wonderful": 12704, "lasting": 12705, "rogram": 12706, "captivating": 12707, "buy": 12708, "gained": 12709, "[int": 12710, "glimpse": 12711, "distractions": 12712, "disruptive": 12713, "inspired": 12714, "vivid": 12715, "descriptions": 12716, "weekdays": 12717, "weekends": 12718, "instructors": 12719, "timezone": 12720,
[...]
